▁patients: 1
▁(: 1
▁+/-: 1
).: 1
▁during: 1
se: 1
),: 1
': 1
▁cells: 1
▁therapy: 1
▁associated: 1
▁significantly: 1
▁coronary: 1
▁months: 1
▁acute: 1
▁increased: 1
▁compared: 1
▁artery: 1
▁ventricular: 1
▁those: 1
▁surgery: 1
▁carcinoma: 1
▁levels: 1
▁diagnosis: 1
▁treated: 1
▁showed: 1
▁without: 1
▁greater: 1
▁performed: 1
▁lesions: 1
▁studies: 1
▁survival: 1
▁tumors: 1
▁cardiac: 1
▁effects: 1
▁primary: 1
▁myocardial: 1
▁analysis: 1
▁liver: 1
▁surgical: 1
▁hypertension: 1
▁studied: 1
▁findings: 1
▁symptoms: 1
▁mg: 1
▁observed: 1
▁subjects: 1
▁occurred: 1
▁factors: 1
▁changes: 1
▁serum: 1
▁pulmonary: 1
▁complications: 1
▁mortality: 1
versus: 1
▁infarction: 1
▁respectively: 1
▁renal: 1
▁underwe: 1
▁rats: 1
▁mm: 1
▁such: 1
▁either: 1
▁plasma: 1
▁ischemia: 1
▁arterial: 1
▁vascular: 1
▁imaging: 1
▁postoperative: 1
▁aortic: 1
▁injury: 1
▁cerebral: 1
▁demonstrated: 1
▁dose: 1
▁conclude: 1
▁intra: 1
▁growth: 1
▁received: 1
▁decreased: 1
▁However: 1
▁controls: 1
▁each: 1
▁obtained: 1
▁breast: 1
▁bypass: 1
": 1
induced: 1
▁resection: 1
▁reduced: 1
as: 1
▁because: 1
▁cent: 1
▁valve: 1
▁malignant: 1
▁Patients: 1
▁gastric: 1
▁rates: 1
▁undergo: 1
▁measured: 1
▁evaluation: 1
▁weeks: 1
▁vs: 1
▁evaluated: 1
▁identified: 1
▁including: 1
▁stroke: 1
▁required: 1
kg: 1
▁examined: 1
▁beta: 1
▁abnormalities: 1
▁": 1
▁chemotherapy: 1
▁differences: 1
ized: 1
▁followed: 1
▁revealed: 1
▁presented: 1
▁hepatic: 1
▁Although: 1
▁duration: 1
▁fluid: 1
▁recurrent: 1
▁alpha: 1
▁n: 1
▁whereas: 1
▁stenosis: 1
mean: 1
▁Hg: 1
▁atrial: 1
▁angioplasty: 1
▁detected: 1
▁biopsy: 1
▁features: 1
▁occlusion: 1
▁hemorrhage: 1
▁abnormal: 1
▁infusion: 1
▁concentrations: 1
▁placebo: 1
▁died: 1
▁leukemia: 1
▁diagnostic: 1
▁considered: 1
▁induced: 1
▁peripheral: 1
▁recurrence: 1
▁described: 1
▁decrease: 1
▁ischemic: 1
▁whether: 1
▁bleeding: 1
▁caused: 1
▁frequency: 1
itis: 1
▁alone: 1
▁values: 1
▁infants: 1
▁lesion: 1
▁hepatitis: 1
▁elevated: 1
▁hypertensive: 1
▁arteries: 1
▁immuno: 1
cell: 1
▁receptor: 1
▁abdominal: 1
▁systemic: 1
▁antigen: 1
▁however: 1
▁correlated: 1
▁oral: 1
▁improved: 1
▁venous: 1
▁reviewed: 1
▁graft: 1
yl: 1
▁procedures: 1
ectomy: 1
▁authors: 1
ex: 1
▁(2: 1
▁correlation: 1
▁tract: 1
▁pancreatic: 1
▁anterior: 1
▁cholesterol: 1
▁randomized: 1
▁spinal: 1
▁resonance: 1
▁metastatic: 1
▁transplantation: 1
▁duct: 1
▁mitral: 1
▁carotid: 1
▁metastases: 1
▁calcium: 1
▁complication: 1
▁they: 1
▁cm: 1
▁dysfunction: 1
▁(3: 1
▁0.05).: 1
▁antibodies: 1
▁antibody: 1
▁respiratory: 1
▁(1: 1
▁overall: 1
▁fraction: 1
▁0.05): 1
▁CT: 1
▁frequently: 1
▁Twenty: 1
▁Doppler: 1
▁lymph: 1
▁onset: 1
▁vitro: 1
▁Thus: 1
▁interval: 1
▁assessed: 1
▁least: 1
▁morbidity: 1
▁mice: 1
▁diagnosed: 1
▁ulcer: 1
▁obstruction: 1
▁preoperative: 1
▁deaths: 1
▁catheter: 1
▁specimens: 1
2): 1
▁lymphoma: 1
▁tomography: 1
▁stimulation: 1
▁d: 1
bout: 1
▁inflammatory: 1
▁events: 1
▁st: 1
▁prospective: 1
▁appears: 1
▁sinus: 1
▁(5: 1
▁shown: 1
▁sensitivity: 1
▁severity: 1
▁0.1: 1
▁responses: 1
▁based: 1
▁bowel: 1
▁agents: 1
magnetic: 1
▁tachycardia: 1
▁clinically: 1
oth: 1
▁episodes: 1
▁conditions: 1
▁discussed: 1
▁receiving: 1
▁produced: 1
▁recovery: 1
▁aneurysm: 1
▁radiation: 1
▁ml: 1
▁systolic: 1
▁distal: 1
0%: 1
9%: 1
▁benign: 1
▁esophageal: 1
▁carcinomas: 1
▁efficacy: 1
ox: 1
▁(4: 1
▁detection: 1
▁prognostic: 1
▁drugs: 1
▁resulted: 1
▁analyzed: 1
▁bile: 1
▁histologic: 1
▁reperfusion: 1
▁median: 1
▁known: 1
▁although: 1
▁isolated: 1
▁sodium: 1
▁techniques: 1
▁tests: 1
▁investigated: 1
▁baseline: 1
▁necrosis: 1
▁signs: 1
▁literature: 1
▁disorders: 1
▁confirmed: 1
▁involved: 1
▁operative: 1
▁computed: 1
▁laser: 1
▁administered: 1
▁healthy: 1
▁cardiovascular: 1
▁biliary: 1
▁prognosis: 1
▁cord: 1
▁involvement: 1
▁sites: 1
▁prevalence: 1
▁intravenous: 1
▁testing: 1
▁node: 1
▁dogs: 1
▁mechanisms: 1
gastrointestinal: 1
▁achieved: 1
▁causes: 1
▁symptomatic: 1
▁glucose: 1
▁(7: 1
▁advanced: 1
▁cyst: 1
▁evaluate: 1
▁likely: 1
▁platelet: 1
▁elderly: 1
▁hormone: 1
▁criteria: 1
▁characteristics: 1
▁fibrillation: 1
▁insulin: 1
▁monitoring: 1
▁resistance: 1
▁noted: 1
▁peri: 1
▁therapeutic: 1
▁cardio: 1
▁samples: 1
▁available: 1
group: 1
▁absence: 1
▁(6: 1
▁limb: 1
▁methods: 1
▁daily: 1
cl: 1
▁percutaneous: 1
▁IL: 1
▁suggests: 1
▁melanoma: 1
▁doses: 1
▁injection: 1
osis: 1
▁marrow: 1
▁relation: 1
▁endoscopic: 1
▁variables: 1
▁5-: 1
▁vivo: 1
▁demonstrate: 1
▁suggested: 1
▁50%: 1
7%: 1
▁portal: 1
echocardiography: 1
▁affected: 1
▁indicated: 1
cor: 1
▁o: 1
▁diastolic: 1
▁prolonged: 1
▁presentation: 1
▁remaining: 1
▁grafts: 1
dose: 1
▁micrograms: 1
▁fistula: 1
▁cervical: 1
positive: 1
▁0.001): 1
▁pregnancy: 1
▁angina: 1
▁hemodynamic: 1
▁angiography: 1
having: 1
▁thrombosis: 1
▁adenocarcinoma: 1
free: 1
▁problems: 1
▁0.5: 1
▁conventional: 1
▁cirrhosis: 1
▁intestinal: 1
▁posterior: 1
▁statistically: 1
▁thyroid: 1
▁hypo: 1
▁RESULTS: 1
▁diarrhea: 1
▁proximal: 1
▁neurologic: 1
▁spontaneous: 1
▁basis: 1
▁ability: 1
▁dissection: 1
▁pylori: 1
▁assay: 1
ml: 1
5%: 1
▁screening: 1
▁infections: 1
▁Clinical: 1
pulmonary: 1
vascular: 1
▁situ: 1
▁trauma: 1
▁removal: 1
ile: 1
range: 1
▁vessels: 1
▁x: 1
blind: 1
▁pancreatitis: 1
▁reconstruction: 1
▁membrane: 1
▁selected: 1
specially: 1
▁characterized: 1
▁persistent: 1
▁bilateral: 1
▁receptors: 1
▁particularly: 1
▁0.01).: 1
▁Effect: 1
▁measurements: 1
▁0.2: 1
▁shunt: 1
▁increases: 1
▁0.001).: 1
▁emergency: 1
▁defined: 1
treated: 1
▁bladder: 1
▁documented: 1
genic: 1
▁0.01): 1
▁cerebro: 1
▁urinary: 1
▁defects: 1
▁degrees: 1
▁adverse: 1
▁individuals: 1
▁transient: 1
▁ovarian: 1
▁asymptomatic: 1
▁mucosa: 1
▁34: 1
▁aged: 1
▁induction: 1
▁squamous: 1
▁arrhythmias: 1
ted: 1
▁aorta: 1
specific: 1
ventricular: 1
ecause: 1
yr: 1
▁binding: 1
▁differentiation: 1
▁regression: 1
6): 1
nervous: 1
▁failed: 1
▁sustained: 1
▁successfully: 1
▁significance: 1
▁monoclonal: 1
plus: 1
▁duodenal: 1
▁tested: 1
▁pathologic: 1
▁kidney: 1
▁headache: 1
▁necessary: 1
▁toxicity: 1
▁seizures: 1
▁progression: 1
▁colorectal: 1
▁Thirty: 1
ens: 1
two: 1
▁(8: 1
▁edema: 1
▁patterns: 1
▁occurrence: 1
▁tumour: 1
▁controlled: 1
▁fetal: 1
▁drainage: 1
▁nodes: 1
▁remains: 1
▁established: 1
ero: 1
3): 1
▁diseases: 1
▁temporal: 1
▁diabetes: 1
▁recorded: 1
▁tr: 1
▁inhibitor: 1
▁delayed: 1
▁suspected: 1
▁laboratory: 1
▁expressed: 1
▁(1): 1
▁0.4: 1
▁relapse: 1
▁tissues: 1
▁confidence: 1
▁importance: 1
▁residual: 1
%): 1
four: 1
▁ejection: 1
▁pathogenesis: 1
▁ventricle: 1
5): 1
▁trials: 1
▁metabolic: 1
▁metastasis: 1
▁activation: 1
▁diabetic: 1
▁0.7: 1
amine: 1
radi: 1
▁adults: 1
spinal: 1
▁despite: 1
▁femoral: 1
▁epithelial: 1
▁ultrasound: 1
▁ST: 1
grade: 1
▁bacterial: 1
▁LV: 1
▁0.8: 1
▁mucosal: 1
▁invasive: 1
▁impairment: 1
▁congenital: 1
▁malignancy: 1
▁intracranial: 1
volving: 1
▁heparin: 1
▁secretion: 1
.2%: 1
▁diet: 1
▁uptake: 1
▁parameters: 1
▁Treatment: 1
▁depression: 1
1): 1
▁fat: 1
three: 1
▁remission: 1
▁intraoperative: 1
pt: 1
▁(2): 1
▁lateral: 1
▁scores: 1
▁specificity: 1
▁supra: 1
ture: 1
▁discharge: 1
▁regurgitation: 1
pho: 1
▁predictive: 1
phy: 1
▁intake: 1
▁probab: 1
▁sensitive: 1
▁images: 1
rate: 1
▁cardiomyopathy: 1
rh: 1
▁inhibition: 1
▁congesti: 1
▁survivors: 1
▁velocity: 1
▁retinal: 1
▁(9: 1
▁maximal: 1
emia: 1
▁experienced: 1
ability: 1
4): 1
▁conduction: 1
▁inflammation: 1
▁2-: 1
▁hypothesis: 1
▁metabolism: 1
▁collagen: 1
▁therefore: 1
▁0.3: 1
▁cellular: 1
▁appeared: 1
▁colonic: 1
▁contribute: 1
lip: 1
tive: 1
▁65: 1
▁carrie: 1
▁childhood: 1
▁Crohn: 1
▁impaired: 1
▁smoking: 1
br: 1
▁occurring: 1
▁operations: 1
▁infarct: 1
▁genes: 1
▁gallbladder: 1
▁younger: 1
esophageal: 1
eth: 1
▁admission: 1
▁clearance: 1
▁CONCLUSIONS: 1
▁occurs: 1
▁0.6: 1
▁hyperplasia: 1
▁radiotherapy: 1
▁comparable: 1
tosis: 1
immunodeficiency: 1
▁mRNA: 1
▁0.9: 1
▁proliferation: 1
▁colitis: 1
▁eyes: 1
▁initially: 1
▁excision: 1
▁prospectively: 1
▁provided: 1
▁transfusion: 1
▁endo: 1
▁cutaneous: 1
▁deficiency: 1
▁excellent: 1
gram: 1
month: 1
▁10%: 1
2,: 1
▁aspiration: 1
▁MR: 1
▁selective: 1
▁pelvic: 1
six: 1
associated: 1
▁scan: 1
▁cancers: 1
▁1.0: 1
▁(10: 1
▁renin: 1
▁pH: 1
histochemical: 1
▁fibrosis: 1
▁rectal: 1
eal: 1
▁39: 1
▁rupture: 1
rial: 1
▁markedly: 1
▁1): 1
▁neurological: 1
▁quality: 1
▁hypertrophy: 1
▁anastomosis: 1
▁induce: 1
▁2): 1
▁mu: 1
five: 1
.3%: 1
▁basal: 1
▁neoplasms: 1
▁none: 1
▁Study: 1
▁thoracic: 1
▁cystic: 1
▁injuries: 1
▁facial: 1
greater: 1
▁reports: 1
▁manifestations: 1
▁synthesis: 1
▁compression: 1
rin: 1
▁responsible: 1
▁Forty: 1
▁mechanical: 1
rom: 1
▁underly: 1
▁hematoma: 1
▁provides: 1
▁reflux: 1
▁endothelial: 1
▁hypotension: 1
▁sarcoma: 1
▁aneurysms: 1
▁histological: 1
▁deletion: 1
▁+: 1
.4%: 1
▁leukocyte: 1
▁rather: 1
▁immune: 1
▁anesthesia: 1
▁stent: 1
▁commonly: 1
▁conducted: 1
▁retrospective: 1
een: 1
▁circulation: 1
▁viral: 1
▁44: 1
▁95%: 1
▁accuracy: 1
▁elective: 1
▁CSF: 1
2-: 1
▁marker: 1
▁patency: 1
▁another: 1
▁thus: 1
▁enhanced: 1
▁regions: 1
los: 1
▁immediately: 1
▁Results: 1
▁hepatocellular: 1
▁markers: 1
▁fever: 1
otomy: 1
6%: 1
▁lymphocytes: 1
late: 1
negative: 1
▁abnormality: 1
▁continued: 1
▁measures: 1
▁saline: 1
▁catheterization: 1
▁focal: 1
▁myo: 1
▁spontaneously: 1
▁dys: 1
▁prevention: 1
▁alterations: 1
CR: 1
▁maintained: 1
▁100%: 1
▁lipid: 1
▁flap: 1
.8%: 1
▁recognized: 1
▁1-: 1
▁repeated: 1
▁prostate: 1
▁sinc: 1
▁cysts: 1
9): 1
eight: 1
▁forms: 1
▁persons: 1
▁altered: 1
CD: 1
▁Furthermore: 1
based: 1
▁sphincter: 1
▁investigate: 1
▁proteins: 1
risk: 1
▁untreated: 1
▁developing: 1
came: 1
▁antigens: 1
▁delivery: 1
▁physicians: 1
▁fibro: 1
▁meningitis: 1
methyl: 1
▁20%: 1
▁intervals: 1
▁0.01: 1
▁Therefore: 1
▁adrenal: 1
8): 1
▁nuclear: 1
▁staining: 1
▁hypoxia: 1
lytic: 1
▁needed: 1
abdominal: 1
.6%: 1
lat: 1
PD: 1
gene: 1
▁angiotensin: 1
▁Acute: 1
▁amino: 1
ologic: 1
▁completely: 1
ES: 1
▁consumption: 1
▁unilateral: 1
▁ulcers: 1
either: 1
▁angio: 1
▁ECG: 1
▁scans: 1
▁72: 1
▁pressures: 1
2+: 1
▁pacing: 1
▁obstructive: 1
▁tumours: 1
▁dilatation: 1
▁observations: 1
▁sclerosis: 1
▁gastro: 1
▁OB: 1
ECTIVE: 1
▁possibility: 1
▁varices: 1
▁intensity: 1
▁46: 1
▁CA: 1
▁ultrasonography: 1
▁microscopic: 1
▁regimen: 1
▁segments: 1
▁pa: 1
▁AIDS: 1
▁Intra: 1
alpha: 1
▁examine: 1
▁atrophy: 1
▁generally: 1
ified: 1
▁thallium: 1
▁0.03: 1
▁lobe: 1
▁recently: 1
▁Us: 1
▁abscess: 1
▁MRI: 1
▁dysplasia: 1
▁cisplatin: 1
▁0.05: 1
▁density: 1
▁angiographic: 1
▁echocardiograph: 1
▁interferon: 1
▁recommended: 1
genesis: 1
▁threshold: 1
▁pneumonia: 1
7): 1
▁autopsy: 1
▁quantitative: 1
▁Fro: 1
▁90%: 1
▁pancreas: 1
▁dilated: 1
▁idiopathic: 1
timal: 1
▁models: 1
▁ascites: 1
▁airway: 1
AND: 1
CL: 1
▁containing: 1
▁postoperatively: 1
▁adenomas: 1
▁irradiation: 1
vascularization: 1
▁Fifty: 1
▁acquired: 1
EP: 1
▁epidural: 1
▁infected: 1
▁taken: 1
▁differential: 1
▁predicted: 1
▁Surgical: 1
nine: 1
▁47: 1
▁adjuvant: 1
▁descending: 1
▁epilepsy: 1
▁maintenance: 1
▁restenosis: 1
▁scanning: 1
▁estrogen: 1
▁expected: 1
▁toxic: 1
▁dementia: 1
▁SD: 1
▁directly: 1
▁upon: 1
▁estimated: 1
▁properties: 1
▁reflex: 1
tumor: 1
▁effusion: 1
▁operated: 1
▁compare: 1
adrenergic: 1
▁cohort: 1
▁earlier: 1
stage: 1
▁dietary: 1
▁rapidly: 1
▁METHODS: 1
▁biopsies: 1
▁gastritis: 1
seven: 1
▁54: 1
▁records: 1
▁seizure: 1
▁removed: 1
▁noninvasive: 1
▁mmol: 1
▁contained: 1
▁applied: 1
▁cortical: 1
▁derived: 1
▁perforation: 1
acet: 1
RS: 1
▁exhibited: 1
evoked: 1
CM: 1
▁intensive: 1
▁strongly: 1
▁inhibited: 1
▁cytologic: 1
▁healing: 1
▁malignancies: 1
▁excretion: 1
LD: 1
labeled: 1
2%: 1
▁gland: 1
▁analyses: 1
▁identification: 1
ranged: 1
▁(95%: 1
▁steroid: 1
ras: 1
▁randomly: 1
antihypertensive: 1
▁AV: 1
▁divided: 1
▁interleukin: 1
▁classified: 1
ogenic: 1
▁myocardium: 1
▁reoperation: 1
▁sympathetic: 1
1-: 1
▁alcoholic: 1
▁cirrhotic: 1
cardiographic: 1
hydroxy: 1
▁pleural: 1
▁implantation: 1
▁dependent: 1
▁adhesion: 1
▁normotensive: 1
▁pediatric: 1
▁primarily: 1
▁tomographic: 1
▁susceptibility: 1
▁closure: 1
▁esophagus: 1
▁ulcerative: 1
▁pathological: 1
AS: 1
▁DESIGN: 1
▁donor: 1
▁lipoprotein: 1
▁30%: 1
▁homo: 1
luminal: 1
▁pathology: 1
phospho: 1
▁biochemical: 1
▁refractory: 1
▁subcutaneous: 1
eptic: 1
▁3-: 1
▁concomitant: 1
▁recombinant: 1
CSF: 1
renal: 1
▁components: 1
▁peritoneal: 1
▁VT: 1
▁electron: 1
▁etiology: 1
▁septal: 1
▁uncommon: 1
▁Immuno: 1
hemo: 1
▁perioperative: 1
▁(12: 1
▁muscles: 1
▁placed: 1
▁salvage: 1
▁intact: 1
▁insertion: 1
▁microscopy: 1
▁peptide: 1
cre: 1
▁migraine: 1
▁43: 1
referred: 1
oronary: 1
▁inferior: 1
▁embolism: 1
▁epithelium: 1
.1%: 1
▁humans: 1
▁(3): 1
▁calculated: 1
▁morphine: 1
▁peritonitis: 1
▁49: 1
▁deficits: 1
▁accompanie: 1
▁amplitude: 1
▁apnea: 1
▁thrombus: 1
▁potentials: 1
▁alive: 1
▁rang: 1
thrombo: 1
▁iso: 1
espite: 1
▁phenomenon: 1
▁parathyroid: 1
▁modified: 1
mediated: 1
ole: 1
oncogene: 1
▁ulceration: 1
▁hearts: 1
▁mmHg: 1
▁activated: 1
▁3): 1
▁polyps: 1
▁prevented: 1
▁IgG: 1
▁subsequently: 1
▁inhibitors: 1
▁assigned: 1
▁histologically: 1
▁localization: 1
▁optic: 1
▁ng: 1
PS: 1
tous: 1
▁families: 1
▁curve: 1
▁neuropathy: 1
median: 1
▁cyto: 1
▁125: 1
▁osteo: 1
▁populations: 1
▁61: 1
▁25%: 1
ork: 1
▁correlate: 1
▁ambulatory: 1
▁intermittent: 1
▁survived: 1
▁reactions: 1
▁syndromes: 1
▁designed: 1
▁sections: 1
▁TNF: 1
▁53: 1
phi: 1
▁clearly: 1
▁Plasma: 1
▁activities: 1
▁ventilation: 1
▁fatty: 1
▁matched: 1
operative: 1
▁norepinephrine: 1
▁staging: 1
▁unchanged: 1
▁always: 1
▁hybridization: 1
▁deterioration: 1
▁reducing: 1
control: 1
▁monitored: 1
▁cr: 1
▁glomerul: 1
▁detectable: 1
controlled: 1
▁6-: 1
▁infiltration: 1
▁extremity: 1
▁structures: 1
plastic: 1
MV: 1
.5%): 1
▁endocarditis: 1
▁superficial: 1
▁prophylaxis: 1
▁reactivity: 1
8%: 1
▁determination: 1
▁proved: 1
▁optimal: 1
▁slightly: 1
▁complicated: 1
HT: 1
▁neoplastic: 1
▁retrospectively: 1
▁Serum: 1
▁HLA: 1
ay: 1
▁sepsis: 1
▁embolization: 1
▁comp: 1
▁probe: 1
PV: 1
3%: 1
▁stages: 1
▁maternal: 1
▁endoscopy: 1
▁Elev: 1
HA: 1
▁mutations: 1
▁smaller: 1
▁palsy: 1
▁filling: 1
▁Postoperative: 1
tomy: 1
▁SETTING: 1
▁taking: 1
▁throughout: 1
▁myeloid: 1
▁grafting: 1
▁antagonist: 1
stimulat: 1
mL: 1
▁ER: 1
icuspid: 1
linked: 1
▁stones: 1
▁75%: 1
▁contralateral: 1
▁implications: 1
▁stenoses: 1
▁mouse: 1
▁salt: 1
▁chemo: 1
▁surgically: 1
▁localized: 1
▁pituitary: 1
hospital: 1
MR: 1
▁pathway: 1
ene: 1
rine: 1
▁62: 1
-7: 1
▁NS: 1
▁1.2: 1
▁0.005): 1
▁Comparison: 1
▁memory: 1
▁aneuploid: 1
▁syn: 1
▁beats: 1
▁ratios: 1
▁atherosclerotic: 1
▁antagonists: 1
▁70%: 1
scopic: 1
▁gamma: 1
▁atherosclerosis: 1
▁Overall: 1
▁periods: 1
▁hr: 1
ometric: 1
▁80%: 1
▁morphologic: 1
▁closely: 1
TS: 1
icular: 1
▁analgesia: 1
▁subarachnoid: 1
▁undertaken: 1
▁exposed: 1
▁cannot: 1
ax: 1
▁CI: 1
▁jaundice: 1
▁cranial: 1
physiologic: 1
▁fractures: 1
▁(11: 1
▁poorly: 1
▁Early: 1
▁differentiated: 1
▁spine: 1
▁adenoma: 1
▁pulse: 1
▁leading: 1
▁cultures: 1
HD: 1
clusion: 1
▁RNA: 1
▁corresponding: 1
▁95: 1
▁absent: 1
▁decline: 1
▁resected: 1
▁injected: 1
▁PTCA: 1
▁extended: 1
-99: 1
cis: 1
▁arthritis: 1
idine: 1
▁0.02: 1
▁None: 1
DR: 1
AM: 1
▁syncope: 1
▁CO: 1
▁meta: 1
matched: 1
▁intermediate: 1
▁together: 1
▁variability: 1
▁dilation: 1
▁histopathologic: 1
▁cholecystectomy: 1
anal: 1
4%: 1
▁adenosine: 1
▁24-: 1
vessel: 1
▁lumbar: 1
▁56: 1
1%: 1
▁physiologic: 1
ami: 1
nucle: 1
▁vitamin: 1
▁fracture: 1
▁stomach: 1
▁delta: 1
cycl: 1
▁deficit: 1
▁traumatic: 1
▁accumulation: 1
▁questionnaire: 1
▁varied: 1
▁reliable: 1
▁tolerance: 1
-201: 1
▁placement: 1
▁Stage: 1
capsula: 1
▁carcino: 1
▁mal: 1
▁premature: 1
▁entity: 1
▁degeneration: 1
▁arch: 1
▁proposed: 1
uria: 1
▁enhance: 1
tre: 1
wave: 1
▁define: 1
▁encephalopathy: 1
▁retrograde: 1
AG: 1
▁sequences: 1
PT: 1
beta: 1
▁yr: 1
omas: 1
VP: 1
▁contraction: 1
responsive: 1
▁Analysis: 1
▁beneficial: 1
▁excluded: 1
myc: 1
▁atrio: 1
III: 1
▁potent: 1
▁counts: 1
▁hepato: 1
rimary: 1
occlusive: 1
▁amputation: 1
▁unstable: 1
AIN: 1
▁requires: 1
▁hospitalization: 1
BP: 1
▁predictor: 1
liter: 1
▁captopril: 1
▁needle: 1
▁relaxation: 1
FU: 1
▁generalized: 1
▁1.3: 1
PO: 1
logy: 1
▁myelo: 1
▁aspirin: 1
▁Tumor: 1
cytes: 1
VT: 1
▁dipyridamole: 1
▁hydrocephalus: 1
▁pretreatment: 1
▁completed: 1
PE: 1
tended: 1
▁males: 1
dl: 1
▁indications: 1
▁59: 1
▁SHR: 1
▁Seventy: 1
▁HPV: 1
▁transformation: 1
lact: 1
▁regimens: 1
table: 1
▁15%: 1
▁volunteers: 1
▁hemi: 1
▁outpatient: 1
▁catheters: 1
▁correction: 1
▁HBV: 1
▁40%: 1
▁responded: 1
▁ear: 1
▁epinephrine: 1
▁resolved: 1
▁anatomy: 1
▁10-: 1
▁vasculitis: 1
▁creatinine: 1
▁resting: 1
▁neoplasm: 1
▁probability: 1
▁gestation: 1
▁subset: 1
▁capillary: 1
▁Whil: 1
▁lactate: 1
▁recovered: 1
▁predictors: 1
ject: 1
▁rabbits: 1
threatening: 1
▁cerebellar: 1
▁favorable: 1
▁PD: 1
therapy: 1
▁recipients: 1
▁stool: 1
CO: 1
▁pg: 1
▁decreases: 1
.6%): 1
▁Nine: 1
SD: 1
▁cytogenetic: 1
▁actua: 1
otic: 1
▁Significant: 1
▁Cancer: 1
prosthetic: 1
aortic: 1
▁insufficiency: 1
▁magnesium: 1
▁electrical: 1
▁neoplasia: 1
▁arrhythmia: 1
effect: 1
▁CNS: 1
gia: 1
▁2.5: 1
derived: 1
▁familial: 1
▁indices: 1
▁neonatal: 1
▁murine: 1
▁Sixty: 1
▁rabbit: 1
▁numbers: 1
▁hernia: 1
▁Twelve: 1
▁bolus: 1
▁skeletal: 1
▁mainly: 1
▁blockers: 1
neu: 1
▁linear: 1
corpore: 1
sensitive: 1
▁infiltrate: 1
▁atypical: 1
▁cholangitis: 1
▁cortex: 1
▁psycho: 1
▁leads: 1
▁collected: 1
▁(15: 1
▁proto: 1
▁radiographic: 1
muscular: 1
lectrocardiogram: 1
▁PATIENTS: 1
▁mammary: 1
▁suture: 1
▁arteriovenous: 1
infected: 1
axis: 1
.4%): 1
▁CAD: 1
▁implanted: 1
▁0.001: 1
CH: 1
▁nodal: 1
100: 1
▁autologous: 1
▁cumulative: 1
▁deviation: 1
▁laparotomy: 1
▁Increas: 1
diastolic: 1
▁initiation: 1
▁effectiveness: 1
▁stain: 1
▁neutrophil: 1
▁independently: 1
▁fiber: 1
▁PC: 1
▁vaso: 1
▁mellitus: 1
▁prosthesis: 1
▁Compar: 1
▁depressed: 1
▁blockade: 1
▁85: 1
adjusted: 1
▁CR: 1
▁prostaglandin: 1
▁thromboly: 1
azo: 1
▁EEG: 1
▁IGF: 1
bl: 1
surgical: 1
-1): 1
▁subgroup: 1
.3%): 1
▁qui: 1
▁57: 1
▁hepatocytes: 1
▁hemorrhagic: 1
vol: 1
▁sequelae: 1
▁outflow: 1
▁strains: 1
▁anatomic: 1
graphic: 1
▁veins: 1
▁molecule: 1
▁translocation: 1
▁locus: 1
▁epidermal: 1
▁blot: 1
▁neural: 1
▁examinations: 1
micro: 1
▁1.1: 1
▁anal: 1
▁lidocaine: 1
▁possibly: 1
▁sensory: 1
▁mumol: 1
▁definitive: 1
▁Moreover: 1
▁electrode: 1
▁99: 1
▁71: 1
▁Parkinson: 1
▁BACKGROUND: 1
▁cavity: 1
▁mesenteric: 1
▁60%: 1
▁urine: 1
▁occluded: 1
phase: 1
▁experiments: 1
▁treating: 1
VA: 1
▁probes: 1
▁aspects: 1
▁magnitude: 1
▁instances: 1
▁pouch: 1
▁lymphoblastic: 1
▁ablation: 1
▁sequential: 1
▁lymphocytic: 1
▁mediated: 1
▁albumin: 1
▁granuloma: 1
▁managed: 1
keratin: 1
▁asthma: 1
▁prostatic: 1
▁coli: 1
▁nasal: 1
▁66: 1
▁severely: 1
block: 1
▁terms: 1
▁58: 1
▁consequences: 1
▁intravenously: 1
clamp: 1
▁ethanol: 1
▁absorption: 1
▁anaesthesia: 1
▁vena: 1
▁proliferative: 1
sided: 1
▁120: 1
▁currently: 1
▁spectrum: 1
▁directed: 1
izing: 1
AD: 1
▁satisfactory: 1
▁Histologic: 1
▁haem: 1
atory: 1
▁(13: 1
▁67: 1
▁5%: 1
▁HBsAg: 1
▁allograft: 1
▁resuscitation: 1
▁infra: 1
Ab: 1
▁fewer: 1
▁valvular: 1
myalgia: 1
▁pericardial: 1
▁verapamil: 1
▁vomiting: 1
▁multivaria: 1
anuary: 1
▁1.6: 1
▁lost: 1
-10: 1
▁neo: 1
receptor: 1
▁attacks: 1
▁valves: 1
▁cocaine: 1
▁follicular: 1
▁revision: 1
▁true: 1
▁incision: 1
patient: 1
▁medial: 1
▁added: 1
▁AMI: 1
▁allowed: 1
guided: 1
▁correlations: 1
▁0.02).: 1
▁cultured: 1
but: 1
▁68: 1
▁cigarette: 1
▁nausea: 1
▁rehabilitation: 1
▁tolerated: 1
opathy: 1
▁lo: 1
oci: 1
▁stimulated: 1
average: 1
▁statistical: 1
caval: 1
▁approaches: 1
cutaneous: 1
.8%): 1
▁ocular: 1
▁fusion: 1
▁intracerebral: 1
▁resistant: 1
▁0.0001).: 1
▁antibiotic: 1
▁agonist: 1
SV: 1
▁4%: 1
▁explained: 1
▁dialysis: 1
▁collateral: 1
▁etoposide: 1
▁evident: 1
ourteen: 1
DS: 1
▁partially: 1
▁thickness: 1
▁12%: 1
▁0.0001): 1
otropic: 1
▁pathogen: 1
sarcoma: 1
▁acids: 1
oxy: 1
aemia: 1
aO: 1
▁advantages: 1
oscopy: 1
lex: 1
▁CONCLUSION: 1
▁disturbances: 1
▁blunt: 1
▁motility: 1
▁ligation: 1
▁spasm: 1
▁patch: 1
▁aorto: 1
▁glands: 1
▁disability: 1
▁preoperatively: 1
0.5: 1
activat: 1
▁8%: 1
▁76: 1
oplasty: 1
▁outcomes: 1
echo: 1
bearing: 1
▁organs: 1
▁fibrin: 1
▁intestine: 1
▁endogenous: 1
▁69: 1
▁reversed: 1
epithelial: 1
▁anemia: 1
globulin: 1
▁.05): 1
▁thromboxane: 1
▁predispos: 1
▁valvuloplasty: 1
▁sera: 1
▁hypertrophic: 1
▁thrombolysis: 1
▁carcinoid: 1
IV: 1
▁6%: 1
carcinoma: 1
▁bronchial: 1
▁products: 1
ised: 1
▁surgeons: 1
mandibular: 1
▁encountered: 1
▁epidemiologic: 1
▁pathophysiology: 1
▁radionuclide: 1
▁lumen: 1
▁atrium: 1
sulf: 1
▁reactive: 1
▁shunting: 1
▁fistulas: 1
▁63: 1
RA: 1
▁2.0: 1
▁Chronic: 1
▁definite: 1
▁restriction: 1
▁canine: 1
LV: 1
▁abscesses: 1
▁interstitial: 1
▁returned: 1
ected: 1
▁histamine: 1
▁rarely: 1
▁suppression: 1
illary: 1
▁(19: 1
▁lymphocyte: 1
▁neuronal: 1
▁-0.: 1
mg: 1
▁neutrophils: 1
▁killer: 1
▁aspirate: 1
▁generated: 1
▁ureter: 1
▁extracellular: 1
▁preservation: 1
▁finger: 1
▁immunoglobulin: 1
▁germ: 1
▁considerable: 1
▁vertebr: 1
▁consideration: 1
▁fibers: 1
▁1.7: 1
globin: 1
▁duplex: 1
▁neonates: 1
▁prophylactic: 1
▁macrophages: 1
accessory: 1
virus: 1
▁Electro: 1
nuclear: 1
▁implant: 1
▁nifedipine: 1
▁reversible: 1
▁triglyceride: 1
▁hypoxic: 1
▁therapies: 1
▁attempted: 1
▁(30: 1
▁endothelium: 1
▁msec: 1
▁73: 1
2/: 1
▁behavioral: 1
▁simultaneously: 1
▁antibiotics: 1
sectional: 1
oesophageal: 1
▁obesity: 1
▁pseudo: 1
▁morphology: 1
▁Total: 1
▁mL: 1
1/2: 1
inflammatory: 1
▁complement: 1
▁ectopic: 1
▁sclerotherapy: 1
▁ingestion: 1
▁fecal: 1
▁mastectomy: 1
▁investigations: 1
▁preserved: 1
▁delivered: 1
▁gav: 1
▁morphological: 1
▁facilitate: 1
▁(14: 1
▁recurrences: 1
▁augment: 1
▁hemisphere: 1
▁Medical: 1
▁protective: 1
▁emphasize: 1
▁ALL: 1
▁vaginal: 1
cope: 1
▁females: 1
4.5: 1
▁specifically: 1
▁lowest: 1
-8: 1
arterial: 1
▁1.4: 1
▁196: 1
▁infectious: 1
▁Alzheimer: 1
▁Compute: 1
▁autoimmune: 1
▁cholangio: 1
▁IgA: 1
occult: 1
▁allele: 1
▁ischaemi: 1
▁erythrocyte: 1
▁Use: 1
▁ductal: 1
▁polyp: 1
cation: 1
cellular: 1
bility: 1
▁canal: 1
▁Cerebr: 1
▁analgesic: 1
▁potassium: 1
▁relevant: 1
▁saturation: 1
▁strategies: 1
▁IgM: 1
▁lymphoid: 1
fluoro: 1
▁processes: 1
▁(20: 1
eno: 1
EV: 1
▁broncho: 1
variceal: 1
▁anomalies: 1
▁HCC: 1
▁frontal: 1
▁cytology: 1
▁enhancement: 1
▁sec: 1
▁74: 1
▁membranes: 1
▁shorter: 1
▁breakpoint: 1
▁curative: 1
▁complaints: 1
▁dysphagia: 1
▁3%: 1
US: 1
▁unrelated: 1
▁RV: 1
▁diagnoses: 1
▁careful: 1
▁Recent: 1
linicopathologic: 1
from: 1
rating: 1
▁weakness: 1
▁uteri: 1
▁preliminary: 1
flu: 1
▁intravascular: 1
▁likel: 1
▁adjustment: 1
▁influenced: 1
▁volumes: 1
▁medications: 1
2.6: 1
cystic: 1
copy: 1
▁nephro: 1
▁granul: 1
▁retro: 1
▁muscular: 1
▁Helicobacter: 1
▁logistic: 1
▁attributed: 1
▁chromosomal: 1
▁77: 1
▁reached: 1
blast: 1
▁81: 1
▁produces: 1
▁histo: 1
FS: 1
▁relatives: 1
▁widely: 1
▁suggestive: 1
toxicity: 1
▁sa: 1
▁Complications: 1
▁myocarditis: 1
▁pregnancies: 1
▁inadequate: 1
▁antiarrhythmic: 1
.1%): 1
▁mitochondrial: 1
physiological: 1
natal: 1
hole: 1
▁78: 1
ardiac: 1
▁0.02): 1
▁injections: 1
▁compliance: 1
▁easily: 1
▁permeability: 1
▁granulocyte: 1
▁mononuclear: 1
▁papillomavirus: 1
▁Preoperative: 1
0.00: 1
OH: 1
▁platelets: 1
▁interventions: 1
▁PA: 1
IO: 1
▁Survival: 1
▁endarterectomy: 1
▁propranolol: 1
▁substrate: 1
▁splenic: 1
▁courses: 1
▁raised: 1
▁79: 1
▁cytoplasm: 1
▁flaps: 1
▁pigment: 1
▁Magnet: 1
▁fixation: 1
▁modality: 1
▁clinician: 1
▁Endoscopic: 1
GM: 1
▁extremely: 1
phil: 1
ogen: 1
▁(16: 1
▁hemodynamics: 1
2.8: 1
▁Eighty: 1
▁amiodarone: 1
1.5: 1
cyclophosphamide: 1
▁longitudinal: 1
▁prednisone: 1
▁puncture: 1
▁rheumatoid: 1
▁HTLV: 1
▁Multiple: 1
▁immunologic: 1
▁papillary: 1
▁calcification: 1
Ca: 1
▁suffered: 1
▁7%: 1
▁biologic: 1
idase: 1
▁limits: 1
▁incomplete: 1
VO: 1
orectal: 1
Group: 1
▁infarcts: 1
▁acetylcholine: 1
▁warfarin: 1
▁retention: 1
▁Left: 1
.9%): 1
▁consistently: 1
pressor: 1
7.5: 1
▁malformations: 1
BL: 1
▁Late: 1
deoxy: 1
CS: 1
▁ascending: 1
▁distress: 1
▁metabolite: 1
▁solitary: 1
▁filter: 1
▁(+/-: 1
▁barium: 1
▁responsiveness: 1
▁polymerase: 1
▁neurons: 1
▁excessive: 1
▁2%: 1
▁persisted: 1
▁Nation: 1
▁masses: 1
▁apparently: 1
organ: 1
▁cava: 1
▁laparoscopic: 1
▁saphenous: 1
▁penetrat: 1
▁dyspepsia: 1
▁living: 1
phenyl: 1
▁transthoracic: 1
▁acceptable: 1
CB: 1
▁ED: 1
dermal: 1
ALL: 1
▁coagulation: 1
▁dominant: 1
▁84: 1
▁heterogeneity: 1
▁modalities: 1
▁sclerosing: 1
▁metaplasia: 1
bacter: 1
▁histology: 1
▁nodules: 1
▁luminal: 1
▁aggregation: 1
▁diminished: 1
▁usefulness: 1
▁emboli: 1
activity: 1
▁organisms: 1
▁Fift: 1
▁gel: 1
▁radiologic: 1
▁Hyper: 1
▁sulfate: 1
▁helpful: 1
▁endocrine: 1
▁eosinophilia: 1
▁intracellular: 1
▁vasodilator: 1
weighted: 1
ood: 1
▁yielded: 1
▁accurately: 1
trans: 1
▁cure: 1
▁.001): 1
reactive: 1
cavernous: 1
fluorescence: 1
▁December: 1
▁Studie: 1
▁lavage: 1
▁sampling: 1
▁hemoglobin: 1
▁plexus: 1
▁sensation: 1
▁dosage: 1
▁shortening: 1
▁cDNA: 1
coll: 1
▁tibial: 1
▁scintigraphy: 1
▁DR: 1
ogram: 1
▁leukemic: 1
▁implants: 1
OR: 1
▁entered: 1
▁96: 1
▁angle: 1
▁amounts: 1
trophic: 1
▁thrombi: 1
▁13%: 1
▁Thirt: 1
tissue: 1
▁(18: 1
▁rejection: 1
▁smear: 1
▁wedge: 1
▁coupl: 1
▁myeloma: 1
▁11%: 1
▁septic: 1
▁exert: 1
peri: 1
▁wk: 1
anti: 1
cardiac: 1
▁recordings: 1
▁inner: 1
▁epileptic: 1
▁pathways: 1
▁(25: 1
rel: 1
▁gallstones: 1
LC: 1
containing: 1
▁intubation: 1
▁surveillance: 1
▁Wistar: 1
▁extraction: 1
pril: 1
enteric: 1
▁sarcomas: 1
▁graded: 1
Cl: 1
▁employed: 1
▁ba: 1
gastric: 1
dis: 1
▁Gy: 1
cranial: 1
peptide: 1
density: 1
femoral: 1
▁indicators: 1
▁Pulmonary: 1
▁tremor: 1
▁hetero: 1
▁requirements: 1
▁intractable: 1
▁PR: 1
▁proven: 1
ably: 1
▁3.0: 1
▁83: 1
▁1%: 1
▁cardioplegi: 1
▁MI: 1
▁intraperitoneal: 1
▁2.2: 1
tryptophan: 1
▁coarctation: 1
▁indomethacin: 1
▁measuring: 1
▁flutter: 1
psychological: 1
▁Ninety: 1
▁microns: 1
▁angiogram: 1
▁phosphate: 1
respective: 1
lymph: 1
▁3.5: 1
traventricular: 1
olol: 1
▁discharged: 1
graft: 1
proliferative: 1
facial: 1
▁adjunct: 1
▁1.8: 1
inguinal: 1
▁arthroplasty: 1
▁prolapse: 1
▁paralysis: 1
▁nmol: 1
▁Gastr: 1
nitro: 1
▁tilt: 1
▁arterio: 1
▁indicator: 1
ovascular: 1
une: 1
tetra: 1
▁secretory: 1
▁BP: 1
▁14%: 1
▁preparations: 1
ough: 1
▁abdomen: 1
▁anesthetic: 1
▁anesthetized: 1
▁bundle: 1
▁fatigue: 1
▁referral: 1
▁lethal: 1
▁supported: 1
▁benefits: 1
▁Peri: 1
▁Neuro: 1
▁differed: 1
UD: 1
▁pregnant: 1
acting: 1
pathy: 1
▁restricted: 1
umb: 1
▁pigs: 1
resistant: 1
conjugat: 1
deficient: 1
▁laryngeal: 1
▁streptokinase: 1
▁dopamine: 1
▁ACE: 1
▁visceral: 1
▁17%: 1
▁colonoscopy: 1
▁entero: 1
▁margins: 1
▁changed: 1
▁nuclei: 1
▁RA: 1
▁coma: 1
▁detailed: 1
▁Huma: 1
▁illustrate: 1
releas: 1
GA: 1
▁fasting: 1
▁subgroups: 1
medullary: 1
▁auditory: 1
▁cytomegalovirus: 1
▁orifice: 1
▁precursor: 1
▁jet: 1
aged: 1
▁testicular: 1
▁cytokine: 1
▁safely: 1
AV: 1
▁preferred: 1
ometry: 1
▁narrowing: 1
▁immunosuppressi: 1
▁82: 1
▁stained: 1
▁strictures: 1
▁sac: 1
▁corticosteroids: 1
▁catecholamine: 1
▁disseminated: 1
▁enlargement: 1
▁ligament: 1
▁paraffin: 1
▁psychiatric: 1
▁chloride: 1
▁analogue: 1
▁nucleus: 1
protein: 1
▁medullary: 1
▁disturbance: 1
TR: 1
▁pig: 1
▁2.3: 1
▁ante: 1
▁nonspecific: 1
activated: 1
▁anatomical: 1
chia: 1
▁ruptured: 1
chemical: 1
▁greatly: 1
▁contractil: 1
4.3: 1
fluorouracil: 1
▁thickening: 1
tyrosine: 1
▁cytometric: 1
stenotic: 1
thyroid: 1
▁initiated: 1
▁mast: 1
▁16%: 1
▁correctly: 1
▁correlates: 1
SM: 1
▁22%: 1
▁SPECT: 1
▁devices: 1
▁reasons: 1
▁febrile: 1
▁hazard: 1
▁incontinence: 1
▁leukotriene: 1
▁retinoblastoma: 1
▁Finally: 1
▁retroperitoneal: 1
▁Intraoperative: 1
ischemic: 1
/100: 1
rain: 1
▁offers: 1
osin: 1
▁bilirubin: 1
▁thoraco: 1
0.1: 1
▁89: 1
▁vasopressin: 1
▁dehydrogenase: 1
▁disappeared: 1
▁frozen: 1
▁implicated: 1
▁axillary: 1
regulatory: 1
▁hysterectomy: 1
▁mediator: 1
▁newborn: 1
▁fibroblasts: 1
total: 1
needle: 1
▁contractions: 1
ull: 1
▁contributed: 1
▁Similarly: 1
▁physiological: 1
▁19%: 1
abl: 1
pheochromocytoma: 1
▁phosphatase: 1
▁somatostatin: 1
▁unclear: 1
▁endometrial: 1
▁Risk: 1
▁glyco: 1
▁disruption: 1
▁clone: 1
▁neur: 1
olysis: 1
▁susceptible: 1
ocytic: 1
▁amylase: 1
▁artificial: 1
▁doxazosin: 1
pathophysiologic: 1
▁Renal: 1
▁91: 1
▁lysis: 1
▁corne: 1
▁rearrangements: 1
resect: 1
▁standardized: 1
▁diploid: 1
▁lympho: 1
amm: 1
▁86: 1
carb: 1
▁odds: 1
amino: 1
▁acoustic: 1
▁myasthenia: 1
▁nicardipine: 1
▁opioid: 1
▁popliteal: 1
▁widespread: 1
confined: 1
▁recommendations: 1
defined: 1
▁hospitalized: 1
motor: 1
▁perfused: 1
▁smokers: 1
▁MT: 1
▁1.9: 1
ipsilateral: 1
▁methotrexate: 1
▁glioma: 1
▁emptying: 1
▁titer: 1
TI: 1
position: 1
▁(17: 1
▁painful: 1
olling: 1
▁indirect: 1
▁elements: 1
▁centers: 1
▁served: 1
▁cardioplegia: 1
existing: 1
look: 1
▁moderately: 1
▁determinants: 1
▁iliac: 1
▁inducible: 1
▁cytotoxic: 1
parietal: 1
▁hematologic: 1
▁profound: 1
▁striking: 1
▁tamponade: 1
▁HBeAg: 1
▁.01): 1
▁purified: 1
▁excised: 1
▁itself: 1
▁Diagnosis: 1
parent: 1
▁HDL: 1
▁prolongation: 1
▁foci: 1
▁attenuated: 1
left: 1
chol: 1
scler: 1
▁85%: 1
▁manifestation: 1
▁21%: 1
ergic: 1
▁circu: 1
▁Spontaneous: 1
▁anticoagulant: 1
▁mediastinal: 1
▁nimodipine: 1
▁strategy: 1
▁thymoma: 1
▁trigemin: 1
▁guidelines: 1
▁spleen: 1
▁etiologic: 1
▁lithotripsy: 1
▁hippocamp: 1
▁toxin: 1
para: 1
-13: 1
sensitivity: 1
▁breathing: 1
▁98: 1
▁kin: 1
▁genital: 1
toxic: 1
DM: 1
▁clones: 1
▁18%: 1
macrophage: 1
▁MEASUREMENTS: 1
▁arteriography: 1
▁multicenter: 1
▁prostheses: 1
▁ventilatory: 1
▁errat: 1
▁mature: 1
▁CHF: 1
azine: 1
▁compounds: 1
▁radiological: 1
▁WK: 1
▁fibrous: 1
binding: 1
▁gallstone: 1
▁clot: 1
▁97: 1
▁SEM: 1
▁Seri: 1
▁nodular: 1
▁Hodgkin: 1
6.5: 1
ossible: 1
vidence: 1
▁Complete: 1
▁Evaluation: 1
▁categories: 1
▁contracture: 1
▁decreasing: 1
▁digoxin: 1
▁inflation: 1
▁residents: 1
▁serotonin: 1
▁neuroblastoma: 1
▁serologic: 1
▁Recurrent: 1
▁intrahepatic: 1
amide: 1
▁rectum: 1
▁retained: 1
peritoneal: 1
▁Cell: 1
▁stricture: 1
▁guide: 1
characterization: 1
▁35%: 1
▁thrombin: 1
▁2.4: 1
▁ileo: 1
3.4: 1
▁gastrin: 1
polar: 1
▁transcript: 1
▁Medi: 1
Prospective: 1
▁numerous: 1
▁ultrastructural: 1
palpable: 1
▁comparative: 1
▁cyclosporine: 1
ercutaneous: 1
degree: 1
function: 1
eventeen: 1
▁27%: 1
LT: 1
▁VF: 1
▁locally: 1
▁stimulate: 1
pass: 1
menstrual: 1
▁depletion: 1
▁dystonia: 1
▁enlarged: 1
▁halothane: 1
▁minimize: 1
▁malaria: 1
subunit: 1
▁pectoris: 1
▁concurrent: 1
▁crossover: 1
phth: 1
ott: 1
▁antero: 1
hepatic: 1
parenchymal: 1
onset: 1
▁mM: 1
5.5: 1
pair: 1
itary: 1
▁Cox: 1
▁alkaline: 1
▁lobectomy: 1
▁paroxysm: 1
▁temporary: 1
▁lupus: 1
▁gravis: 1
▁Scale: 1
▁healed: 1
▁qua: 1
ruc: 1
▁Hypo: 1
▁hyperplastic: 1
ethylene: 1
▁hypothermia: 1
vasoconstriction: 1
▁prediction: 1
▁alteration: 1
▁affinity: 1
▁feeding: 1
▁eosinophil: 1
▁pharmacologic: 1
▁(22: 1
▁mol: 1
Ellis: 1
▁intraocular: 1
▁thrombotic: 1
▁subjective: 1
▁utilization: 1
test: 1
systolic: 1
▁67%: 1
▁meningiomas: 1
▁kerat: 1
▁cement: 1
▁myocyte: 1
▁substantially: 1
▁rose: 1
▁adolescents: 1
0.6: 1
▁2.1: 1
mode: 1
▁organic: 1
▁corrected: 1
▁filtration: 1
opia: 1
ethyl: 1
retic: 1
▁swallow: 1
▁amplification: 1
▁bupivacaine: 1
▁conjunction: 1
▁progesterone: 1
▁septum: 1
▁utility: 1
▁withdrawal: 1
▁saliva: 1
▁Hemodynamic: 1
▁axon: 1
▁shoulder: 1
uric: 1
▁Severe: 1
▁nutritional: 1
▁coexist: 1
ducing: 1
retin: 1
▁ren: 1
▁92: 1
4.6: 1
▁alveolar: 1
▁choroid: 1
▁doxorubicin: 1
▁reversal: 1
▁surviving: 1
▁unexplained: 1
▁intracoronary: 1
▁infused: 1
▁instability: 1
▁paraneoplastic: 1
▁difficulties: 1
tch: 1
▁83%: 1
perfusion: 1
▁(23: 1
malignant: 1
regulation: 1
▁Patient: 1
▁fibrinogen: 1
2.5: 1
▁IU: 1
traumatic: 1
▁tracheal: 1
embedded: 1
▁bodies: 1
▁candidates: 1
▁extremities: 1
▁frequencies: 1
▁omeprazole: 1
▁stimuli: 1
brachial: 1
▁latency: 1
embryo: 1
▁esophagitis: 1
▁pmol: 1
▁deposition: 1
▁accomplished: 1
▁92%: 1
▁believed: 1
TNF: 1
▁33%: 1
▁converting: 1
▁nucleotide: 1
▁difficulty: 1
ometri: 1
▁23%: 1
▁granulomato: 1
▁relax: 1
posed: 1
▁melanocyt: 1
▁necessitat: 1
▁Management: 1
▁judged: 1
▁laparoscopy: 1
▁psychosocial: 1
▁replication: 1
▁isolates: 1
verage: 1
▁diltiazem: 1
IFN: 1
▁contractility: 1
▁GH: 1
▁probable: 1
CAT: 1
with: 1
ulcer: 1
/10: 1
MD: 1
EMG: 1
iliary: 1
section: 1
▁conscious: 1
▁inherited: 1
▁obese: 1
▁technetium: 1
▁treadmill: 1
▁variance: 1
▁supine: 1
▁readily: 1
▁NaCl: 1
▁45%: 1
▁clarif: 1
ontine: 1
▁2.9: 1
▁urea: 1
▁visualized: 1
0.7: 1
▁thin: 1
orbital: 1
▁ploidy: 1
MRI: 1
▁suppressed: 1
▁oxygenation: 1
111: 1
versely: 1
acid: 1
▁polyclonal: 1
▁pronounced: 1
▁trunk: 1
▁discovered: 1
▁remainder: 1
▁unlikely: 1
White: 1
angio: 1
▁twins: 1
▁topical: 1
▁discontinued: 1
▁Rat: 1
▁(0.2: 1
Hodgkin: 1
enhanced: 1
RDS: 1
▁complexes: 1
▁65%: 1
hypersensitivity: 1
kinetic: 1
▁OUT: 1
▁feasible: 1
▁gastrectomy: 1
▁hemodialysis: 1
embryonic: 1
▁herpes: 1
emented: 1
▁(50%): 1
▁Oral: 1
▁inocul: 1
▁cough: 1
▁(4): 1
▁gut: 1
▁SEP: 1
▁mothers: 1
▁determinant: 1
brain: 1
▁indication: 1
oxime: 1
▁fibre: 1
▁pacemaker: 1
▁steady: 1
▁atresia: 1
▁discriminat: 1
▁hematopoieti: 1
▁immature: 1
▁screened: 1
▁radiographs: 1
▁TGF: 1
▁intoxication: 1
▁retinopathy: 1
▁polypeptide: 1
▁(20%): 1
▁anticoagulation: 1
▁necrotic: 1
▁routinely: 1
▁creatine: 1
▁stability: 1
▁accelerated: 1
static: 1
▁63%: 1
invasive: 1
dynamic: 1
injection: 1
▁pulsed: 1
MB: 1
opic: 1
neural: 1
▁advances: 1
wine: 1
square: 1
▁cimetidine: 1
▁matrix: 1
▁palliative: 1
▁relieve: 1
▁Combin: 1
▁Sixteen: 1
trathecal: 1
▁synthetic: 1
▁defibrillation: 1
▁extrahepatic: 1
▁viable: 1
▁introduced: 1
▁93%: 1
▁Role: 1
▁78%: 1
thoracotomy: 1
surgery: 1
▁glycoprotein: 1
HIV: 1
oxic: 1
keto: 1
▁gm: 1
▁tub: 1
▁(0.0: 1
spiratory: 1
react: 1
morbid: 1
▁Children: 1
▁Expression: 1
▁achalasia: 1
▁coefficient: 1
▁conduit: 1
▁mammography: 1
▁atenolol: 1
▁dorsal: 1
▁SAH: 1
▁pairs: 1
▁elimination: 1
▁neutropenia: 1
▁(8%): 1
cytochemical: 1
transfect: 1
ffic: 1
▁160: 1
▁precipitat: 1
▁transverse: 1
aminotransferase: 1
▁microM: 1
▁retino: 1
▁3.2: 1
▁loading: 1
▁7): 1
▁characterize: 1
hip: 1
▁isoflurane: 1
▁endothelin: 1
▁somatosensory: 1
▁unaffected: 1
▁uncomplicated: 1
oelectric: 1
▁acuity: 1
chloro: 1
▁linkage: 1
▁interpretation: 1
▁cytotoxicity: 1
ember: 1
▁bioprosthe: 1
▁weekly: 1
▁restored: 1
▁transplanted: 1
▁cured: 1
▁38%: 1
▁calc: 1
3.9: 1
▁26%: 1
efore: 1
▁Hypertension: 1
▁cataract: 1
▁heterogeneous: 1
▁hypercalcemia: 1
▁intrinsic: 1
▁stimulus: 1
▁suspicion: 1
▁vasospasm: 1
apanese: 1
▁rib: 1
CABG: 1
▁Pain: 1
▁vasodilation: 1
▁mesothelioma: 1
▁3.3: 1
▁glutamate: 1
limiting: 1
▁86%: 1
▁adenomato: 1
catheter: 1
▁malformation: 1
biliary: 1
prone: 1
personal: 1
▁proportional: 1
parathyroidism: 1
▁0.06: 1
▁constipation: 1
▁enrolled: 1
▁evaluable: 1
▁fulminant: 1
▁subacute: 1
▁umbilical: 1
▁ongoing: 1
▁chorio: 1
▁Also: 1
▁discontinuation: 1
▁retardation: 1
▁users: 1
▁promoter: 1
BMT: 1
regulated: 1
segment: 1
▁monocyte: 1
▁48%: 1
▁32%: 1
blastic: 1
ylated: 1
4.4: 1
▁islet: 1
omatous: 1
thrombocytopenia: 1
▁Measurement: 1
▁availability: 1
▁capsule: 1
▁erosion: 1
▁hypothesize: 1
▁arteritis: 1
▁cardi: 1
▁postmortem: 1
▁24%: 1
▁fetuses: 1
▁thereby: 1
▁28%: 1
▁0.002): 1
third: 1
▁diagnose: 1
▁porta: 1
▁cauda: 1
lective: 1
▁relapsed: 1
▁anastomo: 1
reentrant: 1
▁contraceptive: 1
▁positron: 1
▁pseudocyst: 1
▁crypt: 1
▁manipulation: 1
▁caffeine: 1
▁sheep: 1
▁timing: 1
hydra: 1
▁hormonal: 1
▁connective: 1
▁occasionally: 1
▁sial: 1
▁accepted: 1
relative: 1
▁preterm: 1
delta: 1
▁Fra: 1
▁104: 1
▁separated: 1
perfused: 1
ECG: 1
▁Met: 1
varying: 1
morpho: 1
omycin: 1
soluble: 1
▁anxiety: 1
▁attributable: 1
▁bovine: 1
▁octreotide: 1
▁porcine: 1
▁prevalent: 1
▁rebleeding: 1
▁relevance: 1
▁understood: 1
▁unnecessary: 1
▁vagotomy: 1
▁Normal: 1
▁nurse: 1
▁trunc: 1
▁replaced: 1
▁140: 1
▁29%: 1
▁0.04): 1
metry: 1
▁52%: 1
▁exon: 1
▁typically: 1
KA: 1
▁exclude: 1
transferase: 1
▁avoided: 1
tomized: 1
▁amyloid: 1
fetoprotein: 1
▁autosomal: 1
▁constitute: 1
▁enalapril: 1
▁fossa: 1
▁hyperthermia: 1
▁empiric: 1
COME: 1
▁demographic: 1
▁echocardiogram: 1
▁planning: 1
cubation: 1
▁CBF: 1
▁parental: 1
▁synchronous: 1
▁cryo: 1
▁carriers: 1
▁Eighteen: 1
▁sham: 1
▁tear: 1
▁SCC: 1
Barr: 1
▁sixty: 1
▁87%: 1
▁79%: 1
▁110: 1
▁Recently: 1
neoplastic: 1
frequency: 1
▁36%: 1
▁31%: 1
▁erythro: 1
▁inverse: 1
▁smoke: 1
▁abolished: 1
▁circumflex: 1
▁hematocrit: 1
▁improving: 1
▁infancy: 1
▁nevus: 1
▁remnant: 1
phospholipid: 1
▁inserted: 1
▁enema: 1
Child: 1
▁myopathy: 1
cardiography: 1
▁.02: 1
▁immunotherapy: 1
▁adjunctive: 1
photon: 1
treatment: 1
▁96%: 1
▁CPR: 1
▁(7%): 1
▁CHD: 1
▁insight: 1
▁93: 1
0.4: 1
▁58%: 1
thrombin: 1
duodenal: 1
▁meningioma: 1
▁regenerat: 1
ectomies: 1
▁Abnormal: 1
3.8: 1
▁Emergenc: 1
▁Malignan: 1
▁Myocardial: 1
▁Prognostic: 1
▁carbohydrate: 1
▁eligible: 1
▁erythematosus: 1
▁pharmacokinetic: 1
▁velocities: 1
▁disclosed: 1
▁forearm: 1
▁teratoma: 1
AChR: 1
verbal: 1
▁recurred: 1
immunoreactivity: 1
▁codon: 1
▁arise: 1
▁cytometry: 1
▁spectroscopy: 1
omega: 1
RBC: 1
▁spasticity: 1
▁hypoxemia: 1
▁0.003: 1
▁outlet: 1
▁branches: 1
ostomy: 1
▁43%: 1
angiographically: 1
volume: 1
retinal: 1
▁cannula: 1
▁adherence: 1
▁dyspnea: 1
▁hereditary: 1
▁volvulus: 1
▁recanaliz: 1
▁passive: 1
▁increment: 1
▁thermal: 1
▁borderline: 1
▁viability: 1
0.3: 1
▁subtotal: 1
▁Poly: 1
▁88%: 1
▁oligo: 1
articular: 1
1.8: 1
▁61%: 1
4.8: 1
bronchial: 1
phen: 1
response: 1
insulin: 1
base: 1
colon: 1
distinguishable: 1
hypo: 1
cardio: 1
▁interfere: 1
esthesia: 1
atrial: 1
5.7: 1
▁Pediatric: 1
▁Tissue: 1
▁burden: 1
▁dexamethasone: 1
▁homologous: 1
▁participants: 1
▁phenytoin: 1
▁pneumothorax: 1
▁quantified: 1
▁ECMO: 1
▁gonadotropin: 1
▁bleomycin: 1
▁oxide: 1
▁redistribution: 1
▁subclavian: 1
▁clamping: 1
▁macula: 1
▁offered: 1
▁stromal: 1
▁tendon: 1
pancreatography: 1
▁OSA: 1
▁modest: 1
++: 1
▁eliminated: 1
CLL: 1
REM: 1
200: 1
state: 1
▁Here: 1
growth: 1
factor: 1
small: 1
▁microvascula: 1
immuno: 1
DNA: 1
apping: 1
▁44%: 1
▁Cushing: 1
▁chromatography: 1
▁haemorrhage: 1
▁labetalol: 1
▁preferential: 1
▁roentgenogram: 1
▁spectra: 1
▁PGE: 1
▁necrotiz: 1
▁Colon: 1
▁considerably: 1
▁tubular: 1
▁epicardial: 1
▁slope: 1
▁(25%): 1
▁thereafter: 1
▁transposition: 1
▁delineat: 1
▁nude: 1
▁overload: 1
encephalographic: 1
▁84%: 1
▁eventually: 1
▁recognize: 1
▁carefully: 1
stitution: 1
▁Hz: 1
▁CK: 1
holesterol: 1
ocrine: 1
▁equi: 1
▁Thromb: 1
adrenoceptor: 1
▁Ventricul: 1
▁analysed: 1
▁cortisol: 1
▁distension: 1
▁distributed: 1
▁exogenous: 1
▁introduction: 1
▁karyotype: 1
▁particles: 1
▁rigid: 1
estradiol: 1
▁nursing: 1
▁reliability: 1
▁ventriculo: 1
scheri: 1
▁reacted: 1
▁(18%): 1
▁cesarean: 1
▁(12%): 1
VAD: 1
▁validity: 1
▁91%: 1
▁confer: 1
▁73%: 1
.0%): 1
▁overlap: 1
turn: 1
1.0: 1
pharyngeal: 1
pressure: 1
▁lipo: 1
CV: 1
▁perforat: 1
phasic: 1
uantitative: 1
▁hemangioma: 1
▁Correlation: 1
▁ganglia: 1
▁necropsy: 1
▁nephrectomy: 1
▁schwannoma: 1
▁spindle: 1
▁sporadic: 1
▁ventral: 1
▁prostatectomy: 1
▁recur: 1
▁neuroendocrine: 1
▁eradicat: 1
▁splenectomy: 1
histochemistry: 1
▁consciousness: 1
▁leakage: 1
▁blinded: 1
sparing: 1
audi: 1
▁analyze: 1
fat: 1
▁89%: 1
▁77%: 1
▁NK: 1
6.8: 1
▁34%: 1
6.4: 1
significant: 1
glucose: 1
▁propose: 1
▁spastic: 1
▁dissect: 1
chlor: 1
azepam: 1
streptococc: 1
▁Hepatic: 1
▁ameliorat: 1
▁ascitic: 1
▁autoantibodies: 1
▁carbamazepine: 1
▁exclusively: 1
▁integrated: 1
▁repetitive: 1
▁atherectomy: 1
▁Holter: 1
▁Liver: 1
▁irritab: 1
▁presumably: 1
ifying: 1
▁abort: 1
▁diuretics: 1
▁mimick: 1
▁(10%): 1
giving: 1
6.6: 1
▁dural: 1
▁interpreted: 1
▁Brain: 1
▁acidosis: 1
PAP: 1
6.1: 1
1.6: 1
▁0.04: 1
ctal: 1
venous: 1
▁dura: 1
8.8: 1
converting: 1
including: 1
limb: 1
ymptomatic: 1
drink: 1
jejunostomy: 1
rheumatic: 1
voluntary: 1
▁allogeneic: 1
▁cervix: 1
▁completion: 1
▁displacement: 1
▁efficient: 1
▁nocturnal: 1
▁swelling: 1
▁0.08: 1
▁babies: 1
sphenoid: 1
▁burst: 1
▁anastomoses: 1
▁dye: 1
▁striat: 1
▁axial: 1
mTc: 1
▁(22%): 1
▁sheath: 1
ilateral: 1
▁veno: 1
butyr: 1
pancreatic: 1
▁stroma: 1
fective: 1
▁sigmoid: 1
▁hamster: 1
▁influenza: 1
thymic: 1
▁Detection: 1
▁cholecystitis: 1
▁derivative: 1
▁fascia: 1
▁grading: 1
▁histories: 1
▁palliation: 1
▁paraplegia: 1
▁stopped: 1
▁cessation: 1
▁somatic: 1
▁nonfatal: 1
▁mouth: 1
▁ACTH: 1
▁mucus: 1
▁pharmacological: 1
▁PTH: 1
cAMP: 1
▁osteosarcoma: 1
▁substitution: 1
▁(11%): 1
rectal: 1
▁TRU: 1
▁proteinuria: 1
coming: 1
▁180: 1
▁arteriol: 1
diaphragma: 1
dopa: 1
not: 1
▁differentiate: 1
5.6: 1
thalamic: 1
aldosterone: 1
ultrasonographic: 1
▁coffee: 1
▁cytosolic: 1
▁perhaps: 1
▁screw: 1
▁tamoxifen: 1
▁Disease: 1
▁parenteral: 1
▁vagal: 1
▁nevi: 1
▁dilut: 1
▁aureus: 1
▁endotoxin: 1
▁manometry: 1
otitis: 1
▁mitogen: 1
▁demonstration: 1
▁PAF: 1
▁noncardiac: 1
▁MAb: 1
▁shear: 1
▁71%: 1
▁elicited: 1
▁gradually: 1
▁overdose: 1
tensive: 1
7.5%: 1
ICA: 1
diagnostic: 1
▁rearrangement: 1
constriction: 1
▁37%: 1
dimer: 1
glutam: 1
▁cranio: 1
▁Raynaud: 1
▁cadaver: 1
▁clonal: 1
▁efficiency: 1
▁epitope: 1
▁modulate: 1
▁vasculature: 1
▁postulated: 1
▁antral: 1
▁vulva: 1
▁thromboembolism: 1
▁Pathologic: 1
▁Ewing: 1
▁tuberculosis: 1
▁irreversible: 1
▁brainstem: 1
▁cannulation: 1
CAD: 1
▁Flow: 1
photocoagulation: 1
19-9: 1
whi: 1
▁stereo: 1
▁androgen: 1
knee: 1
vaginal: 1
therapeutic: 1
diagnosed: 1
6.9: 1
▁progenitor: 1
Successful: 1
TRACT: 1
▁Multivaria: 1
▁exacerbation: 1
▁leaflet: 1
▁urokinase: 1
▁Nineteen: 1
▁neuroleptic: 1
▁Oncology: 1
▁pelvis: 1
▁oxidase: 1
▁(24%): 1
▁glial: 1
kDa: 1
▁chrom: 1
▁randomised: 1
▁appendicitis: 1
gonad: 1
▁Preventi: 1
▁1,25: 1
▁(15%): 1
▁thromboembolic: 1
▁prenatal: 1
▁(3%): 1
▁74%: 1
▁(5%): 1
▁81%: 1
▁wor: 1
▁Reduc: 1
optic: 1
8.5: 1
plasmic: 1
sustained: 1
reperfusion: 1
tradural: 1
▁iodine: 1
▁sensori: 1
▁bradycardia: 1
▁excimer: 1
▁gynecologic: 1
▁modulation: 1
▁socioeconomic: 1
basilar: 1
▁ascertain: 1
▁0.07: 1
▁laminin: 1
▁colectomy: 1
▁ileostomy: 1
secreting: 1
▁flexion: 1
▁(26%): 1
▁isoproterenol: 1
▁anaplastic: 1
▁macroscopic: 1
▁vision: 1
▁Diagnostic: 1
▁(23%): 1
▁enough: 1
▁extradural: 1
▁immunoreactive: 1
▁glandular: 1
snorers: 1
▁intraluminal: 1
300: 1
▁64%: 1
taining: 1
▁supportive: 1
developmental: 1
▁net: 1
▁41%: 1
▁69%: 1
▁46%: 1
observer: 1
perative: 1
lung: 1
urethral: 1
currence: 1
▁regurgita: 1
thymidine: 1
▁Vascular: 1
▁anomalous: 1
▁claudication: 1
▁glaucoma: 1
▁metoprolol: 1
▁nitroprusside: 1
▁penicillin: 1
▁polymorphism: 1
▁sestamibi: 1
▁snoring: 1
▁vitreous: 1
Kyoto: 1
▁deformity: 1
▁sickle: 1
▁nail: 1
aspartate: 1
▁labeling: 1
▁postmenopausal: 1
▁rational: 1
▁incorporation: 1
▁intramuscular: 1
▁arterioles: 1
▁ratings: 1
▁ultimately: 1
SMC: 1
trained: 1
▁aging: 1
▁62%: 1
opharyngeal: 1
tropic: 1
7.3: 1
▁colo: 1
drug: 1
operated: 1
PTCA: 1
▁mediate: 1
▁deteriorat: 1
▁afferent: 1
▁insufficient: 1
▁jugular: 1
▁pneumatic: 1
▁positivity: 1
▁pseudoaneurysm: 1
▁pulsatil: 1
▁stiffness: 1
▁submucosa: 1
▁tympan: 1
▁urgent: 1
▁crisis: 1
▁(31%): 1
mingham: 1
▁electrolyte: 1
▁alanine: 1
▁cecal: 1
▁cartilage: 1
▁MEASURES: 1
▁cholestasis: 1
▁INTERVENTIONS: 1
▁extracranial: 1
▁termination: 1
opathological: 1
▁nonoperative: 1
▁5.0: 1
▁confirmation: 1
▁Trial: 1
▁neovascular: 1
8.7: 1
▁3.6: 1
induc: 1
5.8: 1
▁Dukes: 1
▁Outcome: 1
▁aerobic: 1
▁dissociation: 1
▁flexible: 1
▁histopathology: 1
▁intolerance: 1
▁obstructed: 1
▁physiology: 1
▁quadrant: 1
▁ventilated: 1
▁proband: 1
▁Repeat: 1
▁torsion: 1
▁began: 1
▁cyclic: 1
▁(30%): 1
▁radial: 1
▁periventricular: 1
▁66%: 1
▁72%: 1
tachyarrhythmias: 1
▁illnesses: 1
MoAb: 1
1.4: 1
sterase: 1
7.0: 1
flex: 1
electro: 1
stem: 1
thoracic: 1
expression: 1
steroid: 1
albumin: 1
▁4.2: 1
terminal: 1
ajor: 1
▁diaphragm: 1
▁homocyst: 1
▁astrocyt: 1
radioimmunoassay: 1
▁Stroke: 1
▁abrupt: 1
▁benzodiazepine: 1
▁circumstances: 1
▁hemiparesis: 1
▁hepatectomy: 1
▁separation: 1
▁ultrasonic: 1
▁uterus: 1
▁vimentin: 1
▁viscosity: 1
▁(75%): 1
▁blindness: 1
operable: 1
▁ankle: 1
Glu: 1
▁missed: 1
▁prothrombin: 1
▁(13%): 1
▁complementary: 1
▁migration: 1
▁secreted: 1
▁parotid: 1
▁dystrophy: 1
▁actin: 1
▁neurogenic: 1
▁800: 1
1.7%: 1
asked: 1
differentiated: 1
hexa: 1
▁retina: 1
appear: 1
▁rectu: 1
ocardi: 1
pleural: 1
gress: 1
▁choledoch: 1
cholesterolemia: 1
orrheic: 1
▁Examination: 1
▁atypia: 1
▁detachment: 1
▁disappearance: 1
▁feasibility: 1
▁fentanyl: 1
▁hypoglycemia: 1
▁tobacco: 1
▁trisomy: 1
▁Platelet: 1
▁spike: 1
▁transmitt: 1
ABS: 1
▁investigators: 1
▁(21%): 1
▁Congenital: 1
▁isolation: 1
▁prescribed: 1
▁loci: 1
▁polyposis: 1
▁immunization: 1
4.5%: 1
▁reasonable: 1
▁prehospital: 1
▁Calm: 1
▁(6%): 1
▁pretreated: 1
▁rhe: 1
nasal: 1
8.6: 1
2.2: 1
▁Extra: 1
▁fibroblast: 1
molecular: 1
testinal: 1
▁fetus: 1
chain: 1
epatitis: 1
arginine: 1
column: 1
rhabdomyosarcoma: 1
▁Mortality: 1
▁Muscle: 1
▁Staphylococcus: 1
▁carinii: 1
▁deposits: 1
▁obscure: 1
▁orthotopic: 1
▁osteomyelitis: 1
▁phenotypic: 1
▁rehydration: 1
▁superoxide: 1
▁unresectable: 1
▁spatial: 1
▁ataxia: 1
ternational: 1
HBx: 1
▁brush: 1
▁(14%): 1
▁lens: 1
thionine: 1
diploid: 1
▁82%: 1
▁98%: 1
▁myelin: 1
plasty: 1
mastoid: 1
▁oste: 1
vertebr: 1
pinal: 1
▁nodule: 1
▁medulla: 1
glucagon: 1
▁Response: 1
▁celiac: 1
▁contamination: 1
▁elucidate: 1
▁erythema: 1
▁guidance: 1
▁haplotype: 1
▁malabsorption: 1
▁suction: 1
carotene: 1
▁gadolinium: 1
▁ovary: 1
▁promise: 1
▁transmural: 1
▁(38%): 1
▁rural: 1
apilloma: 1
7.4: 1
▁(60%): 1
▁anomaly: 1
▁subclinical: 1
▁elastic: 1
▁kinetics: 1
▁postnatal: 1
▁drawn: 1
▁0.006: 1
▁68%: 1
antigen: 1
absorb: 1
2.0: 1
▁thyro: 1
▁bronchi: 1
▁macro: 1
Guerin: 1
filament: 1
kappa: 1
ophthalmic: 1
▁Development: 1
▁Prevalence: 1
▁bifurcation: 1
▁continence: 1
▁discomfort: 1
▁dissolution: 1
▁multifocal: 1
▁nondiabetic: 1
▁noradrenaline: 1
▁polymorphic: 1
▁preclude: 1
▁vesicle: 1
▁Insulin: 1
▁synthesiz: 1
▁tracheostomy: 1
▁Barrett: 1
▁Transient: 1
▁cuff: 1
▁regress: 1
▁bicarbonate: 1
▁dual: 1
▁drinking: 1
▁Conversely: 1
RNA: 1
▁antimicrobial: 1
▁ileal: 1
odium: 1
▁apical: 1
▁polymer: 1
benz: 1
▁stimulator: 1
9.5: 1
▁Systemic: 1
▁defective: 1
8.0: 1
GFR: 1
acetyl: 1
excit: 1
undifferentiated: 1
sorbent: 1
pathologic: 1
systole: 1
▁combin: 1
9.7: 1
transplant: 1
xtrapyramidal: 1
etastatic: 1
diuretic: 1
AIDS: 1
nicotine: 1
▁duodenum: 1
▁faecal: 1
▁femoropopliteal: 1
▁flumazenil: 1
▁genomic: 1
▁glioblastoma: 1
▁hemolysis: 1
▁leukaemia: 1
▁sediment: 1
▁Actua: 1
▁epidermo: 1
▁obstetric: 1
ventriculography: 1
▁insult: 1
▁mineral: 1
▁lining: 1
▁rash: 1
▁triphosphate: 1
▁Cardiovascular: 1
WBC: 1
▁corticosteroid: 1
▁assistance: 1
1.3: 1
▁dosing: 1
host: 1
▁(9%): 1
▁athero: 1
dverse: 1
genous: 1
▁Lymph: 1
▁preserve: 1
▁retard: 1
▁Cardio: 1
clinical: 1
▁cerebello: 1
ELISA: 1
▁0.0005): 1
▁Experimental: 1
▁PURPOSE: 1
▁athletes: 1
▁dysrhythmias: 1
▁larynx: 1
▁mucinous: 1
▁paracetamol: 1
▁prostacyclin: 1
▁decompensat: 1
▁dioxide: 1
▁GABA: 1
▁nonsteroidal: 1
▁Neurologic: 1
▁pathogenetic: 1
▁scoring: 1
▁gait: 1
▁dental: 1
sellar: 1
peak: 1
oxygen: 1
6.7%: 1
assist: 1
▁waveform: 1
▁stabilization: 1
depolariz: 1
embolic: 1
3.5: 1
▁myelogen: 1
8.9: 1
verted: 1
suppressive: 1
▁pancreat: 1
ngioplasty: 1
▁Hemo: 1
echanical: 1
▁cholesta: 1
hether: 1
▁Laparoscop: 1
antitrypsin: 1
onephritis: 1
▁.0001): 1
▁Assessment: 1
▁allocated: 1
▁category: 1
▁consensus: 1
▁driving: 1
▁emerged: 1
▁immunophenotyp: 1
▁messenger: 1
▁underestimat: 1
▁Genetic: 1
▁Maxim: 1
▁vestibul: 1
▁zinc: 1
▁Subjects: 1
▁hemolytic: 1
▁meningeal: 1
▁nephropathy: 1
▁paired: 1
▁oedema: 1
▁polymorpho: 1
▁(17%): 1
FDG: 1
angiotensin: 1
travenous: 1
CVD: 1
▁94%: 1
▁simplex: 1
The: 1
AML: 1
poly: 1
systemic: 1
▁6.2: 1
7.8: 1
8.4: 1
▁mimic: 1
quamous: 1
pnoea: 1
▁Esophage: 1
▁Fontan: 1
▁Pancreatic: 1
▁Society: 1
▁amplified: 1
▁criterion: 1
▁diverse: 1
▁fibronectin: 1
▁immunity: 1
▁intercostal: 1
▁juice: 1
▁levodopa: 1
▁pedicle: 1
▁perceived: 1
▁summarize: 1
▁thymus: 1
depleted: 1
▁reoxygenation: 1
▁lymphokine: 1
▁bacteremia: 1
▁monomorph: 1
▁(33%): 1
▁respondents: 1
lobular: 1
▁adhere: 1
▁bcr: 1
▁calcified: 1
▁metall: 1
▁degenerative: 1
▁hypoperfusion: 1
▁permitted: 1
▁postischemic: 1
resolution: 1
▁hepatoma: 1
▁herniation: 1
▁exclusion: 1
edema: 1
rinary: 1
rafluoroethylene: 1
▁gastrinoma: 1
▁97%: 1
▁stoma: 1
label: 1
▁patell: 1
▁Recogni: 1
▁consequent: 1
cetaminophen: 1
dislocation: 1
▁decrement: 1
▁diarrhoea: 1
▁efficacious: 1
▁endocardial: 1
▁maturation: 1
▁peritoneum: 1
▁undetectable: 1
▁voltage: 1
▁xenograft: 1
▁continent: 1
▁discrete: 1
▁stasis: 1
▁tumorigenic: 1
▁(27%): 1
▁Mitr: 1
▁triple: 1
▁amyloidosis: 1
▁persistence: 1
differentiating: 1
▁midline: 1
▁bacillus: 1
▁causative: 1
▁uve: 1
platelet: 1
▁responders: 1
gamma: 1
transform: 1
▁(4%): 1
▁hyperemia: 1
oblastoma: 1
transplantation: 1
▁fistul: 1
sternal: 1
ifferences: 1
scribed: 1
2.9: 1
1.1: 1
9.0: 1
agglutin: 1
▁County: 1
▁Failure: 1
▁Statistical: 1
▁Sudden: 1
▁arthroplasties: 1
▁eccentric: 1
▁fungal: 1
▁poisoning: 1
▁provoke: 1
▁recombination: 1
▁scaveng: 1
synaptic: 1
▁concentric: 1
▁enzymatic: 1
PTFE: 1
▁wrist: 1
▁starch: 1
▁oligonucleotide: 1
▁Therapy: 1
▁cooling: 1
▁imbalance: 1
▁lamb: 1
carboxy: 1
▁myelopathy: 1
▁fundus: 1
▁Single: 1
▁Cyst: 1
▁observers: 1
leeding: 1
SPECT: 1
fixed: 1
cervical: 1
▁orbit: 1
▁parenchyma: 1
▁prolong: 1
RAS: 1
puta: 1
WO: 1
expiratory: 1
▁Drug: 1
▁Infection: 1
▁Visual: 1
▁Wilms: 1
▁allopurinol: 1
▁aortography: 1
▁asymmetry: 1
▁cachexia: 1
▁defecation: 1
▁extrastimuli: 1
▁gangrene: 1
▁integrity: 1
▁juvenile: 1
▁phenylephrine: 1
▁porphyri: 1
▁postpartum: 1
▁qualitative: 1
▁recessive: 1
▁resuscitated: 1
▁tunnel: 1
▁urticaria: 1
▁depressive: 1
▁enucleation: 1
▁evolve: 1
▁reentry: 1
▁caution: 1
▁0.09: 1
▁modify: 1
▁subtle: 1
▁Lung: 1
▁nasopharyngeal: 1
▁(32%): 1
erbB: 1
▁begun: 1
▁Aortic: 1
▁composite: 1
▁Phase: 1
colic: 1
▁placental: 1
spite: 1
AFP: 1
9.3: 1
generation: 1
▁ester: 1
shaped: 1
fibrillar: 1
Gastrointestinal: 1
calcitonin: 1
contraindication: 1
▁anaerobic: 1
▁cholinergic: 1
▁confound: 1
▁diversion: 1
▁electrophoresis: 1
▁gentamicin: 1
▁homosexual: 1
▁maneuver: 1
▁Improv: 1
▁aphasia: 1
aposi: 1
▁Persisten: 1
▁reactivation: 1
▁sonography: 1
▁impulse: 1
▁eyelid: 1
acchar: 1
glottic: 1
▁bony: 1
▁ileum: 1
▁sedation: 1
▁antiepileptic: 1
▁hypotensive: 1
▁cytokeratin: 1
▁intrathoracic: 1
otoxin: 1
arrhythmic: 1
▁neurosurgical: 1
▁biology: 1
pharmacologic: 1
patellar: 1
▁microgram: 1
retreatment: 1
ook: 1
▁nutrition: 1
ctivation: 1
otypic: 1
aving: 1
▁NGF: 1
neuropath: 1
oderma: 1
precipit: 1
▁excitat: 1
1.5%: 1
▁restore: 1
reliminary: 1
eripheral: 1
esarean: 1
pheresis: 1
▁Arterial: 1
▁Isolated: 1
▁Sensitivity: 1
▁attachment: 1
▁crystalloid: 1
▁geriatric: 1
▁hematuria: 1
▁midazolam: 1
▁narcotic: 1
▁pericardium: 1
▁phenobarbital: 1
▁reciprocal: 1
▁speculate: 1
▁adrenocortic: 1
▁antrum: 1
▁corpus: 1
▁immunoblot: 1
▁countries: 1
▁protracted: 1
▁Lyme: 1
▁NIH: 1
▁intrauter: 1
▁washout: 1
▁(40%): 1
▁autogenous: 1
▁hypoplasia: 1
▁novo: 1
▁biphasic: 1
▁coding: 1
cardiograms: 1
polio: 1
▁mammographic: 1
standard: 1
pump: 1
ontinuous: 1
7.7: 1
stomal: 1
neuropsychologic: 1
▁activate: 1
xposure: 1
▁placenta: 1
follicle: 1
pyruvate: 1
tuberculous: 1
▁Delayed: 1
▁cholecystokinin: 1
▁heavi: 1
▁hypothyroidism: 1
▁iatrogenic: 1
▁measurable: 1
▁murmur: 1
▁naloxone: 1
▁necessarily: 1
▁polyneuropathy: 1
▁sucralfate: 1
▁xanthine: 1
▁commissurotomy: 1
▁leukocytosis: 1
▁protease: 1
▁reliably: 1
▁scleroderma: 1
▁omentum: 1
▁IDDM: 1
▁Predict: 1
▁impedance: 1
▁Selective: 1
▁extracted: 1
▁(86%): 1
▁worsening: 1
▁Laser: 1
provocati: 1
▁(29%): 1
▁entities: 1
▁applicable: 1
▁bipolar: 1
8.5%: 1
apan: 1
▁(19%): 1
conserv: 1
dominant: 1
odds: 1
energy: 1
iliac: 1
▁morph: 1
duced: 1
inhibit: 1
3.7%: 1
7.9: 1
dysplasia: 1
7.7%: 1
3.0: 1
myocardial: 1
▁hypothermi: 1
encephalopath: 1
▁pneumo: 1
▁Incidence: 1
▁PARTICIPANTS: 1
▁abdominope: 1
▁attached: 1
▁clipping: 1
▁coeliac: 1
▁debridement: 1
▁hydralazine: 1
▁intussusception: 1
▁mammogram: 1
▁procollagen: 1
▁symptomatology: 1
▁unsuspect: 1
▁Infarct: 1
▁Prolonged: 1
▁Tourette: 1
▁centrifug: 1
▁trypsin: 1
▁derangement: 1
▁Haem: 1
▁covered: 1
▁scalp: 1
▁(82%): 1
promoting: 1
astern: 1
▁stump: 1
▁(42%): 1
enriched: 1
▁Angiographic: 1
▁recto: 1
▁autograft: 1
▁dying: 1
biotin: 1
▁cyano: 1
current: 1
cancer: 1
dialysis: 1
blood: 1
▁ortho: 1
genetically: 1
urnal: 1
oint: 1
▁disrupt: 1
▁institut: 1
zygot: 1
▁encephalo: 1
salicyl: 1
tetrazol: 1
▁Nevertheless: 1
▁Radiation: 1
▁communicating: 1
▁duplication: 1
▁erythropoietin: 1
▁fenestration: 1
▁hyperglycemia: 1
▁inheritance: 1
▁jejunal: 1
▁microsphere: 1
▁monkey: 1
▁nipple: 1
▁pruritus: 1
▁testosterone: 1
▁univaria: 1
▁vincristine: 1
aluminum: 1
▁quantify: 1
malacia: 1
▁Another: 1
▁alfa: 1
▁scarring: 1
▁fmol: 1
▁Northern: 1
▁sigmoidoscopy: 1
▁habits: 1
▁clotting: 1
▁0.007: 1
traductal: 1
▁thigh: 1
▁manometric: 1
▁lipoma: 1
▁opiate: 1
triggered: 1
▁aggreg: 1
7.2: 1
▁stabiliz: 1
myelination: 1
Shiley: 1
kilobase: 1
ntimyosin: 1
▁Indications: 1
▁anticonvulsant: 1
▁clonidine: 1
▁emphysema: 1
▁hemispheric: 1
▁heterozygous: 1
▁hydrochloride: 1
▁incompetence: 1
▁lichen: 1
▁phenomena: 1
▁quantitate: 1
▁quinidine: 1
▁ranitidine: 1
▁relapsing: 1
▁residues: 1
▁sarcoidosis: 1
▁schizophrenia: 1
▁sciatic: 1
▁subpopulation: 1
▁suspicious: 1
▁synovial: 1
▁preeclampsia: 1
▁verified: 1
▁chosen: 1
▁glute: 1
▁loosening: 1
▁(43%): 1
▁(67%): 1
▁favorably: 1
▁premenopausal: 1
tidal: 1
▁(0.9: 1
▁osti: 1
infection: 1
human: 1
▁0.005: 1
▁6.7: 1
idirectional: 1
bdominal: 1
mortem: 1
lymphoma: 1
▁elicit: 1
▁Calcium: 1
▁Implication: 1
▁aetiology: 1
▁capillaries: 1
▁gastroenteritis: 1
▁infrequently: 1
▁laceration: 1
▁leiomyoma: 1
▁metronidazole: 1
▁monolayer: 1
▁myoclonus: 1
▁predominance: 1
▁promyelocytic: 1
▁stratified: 1
▁submitted: 1
▁uneventful: 1
▁unselected: 1
quartile: 1
▁dextran: 1
▁acetabul: 1
▁dendrit: 1
▁deoxyribonucle: 1
▁haematoma: 1
▁leuco: 1
▁citrate: 1
▁autocrine: 1
▁(71%): 1
▁(56%): 1
▁flexor: 1
▁(47%): 1
▁neutralizing: 1
chnic: 1
▁calf: 1
mucous: 1
▁fibromyalgia: 1
▁mobility: 1
▁desmo: 1
Parkinson: 1
thickness: 1
contrast: 1
defibrillator: 1
bnormalities: 1
linking: 1
▁0.002: 1
glycol: 1
3.5%: 1
▁impair: 1
▁intima: 1
▁Angio: 1
varian: 1
neumocystis: 1
▁BALB: 1
▁Efficac: 1
▁Exercise: 1
▁Immediate: 1
▁Relationship: 1
▁Wilson: 1
▁appreciabl: 1
▁arithmetic: 1
▁cholangiography: 1
▁circumferential: 1
▁discordant: 1
▁dismutase: 1
▁exacerbate: 1
▁femur: 1
▁ganglion: 1
▁inflamed: 1
▁intensities: 1
▁oblique: 1
▁opportunity: 1
▁prostanoid: 1
▁territory: 1
condylar: 1
▁Improvement: 1
eterans: 1
▁(78%): 1
▁(36%): 1
▁(88%): 1
▁(80%): 1
▁(57%): 1
▁(55%): 1
▁cistern: 1
▁craniotomy: 1
▁passed: 1
▁submaximal: 1
▁hypothalamic: 1
▁(16%): 1
▁sterno: 1
HBc: 1
adenine: 1
lastic: 1
fectious: 1
responder: 1
coagulation: 1
▁transferrin: 1
tracheal: 1
lymphocyte: 1
hemorrhagic: 1
second: 1
determined: 1
reported: 1
▁hepatocyte: 1
▁divert: 1
9.6: 1
ntibodies: 1
562: 1
osto: 1
regulat: 1
filtration: 1
▁phosphorus: 1
Retrospective: 1
compatibility: 1
gauge: 1
immunoperoxidase: 1
oophorectomy: 1
▁Biopsy: 1
▁October: 1
▁alleviat: 1
▁categorized: 1
▁digestive: 1
▁ferritin: 1
▁fragile: 1
▁glucocorticoid: 1
▁lymphadenectomy: 1
▁mandible: 1
▁oxidative: 1
▁perfusate: 1
▁pericarditis: 1
▁prednisolone: 1
▁promising: 1
▁radiolucen: 1
▁condyloma: 1
▁debris: 1
▁trophoblast: 1
▁disabling: 1
▁hypertonic: 1
▁instead: 1
adenylate: 1
▁Decreas: 1
▁(54%): 1
▁(41%): 1
fibrinolytic: 1
▁superimpos: 1
FNAB: 1
▁(35%): 1
▁endotracheal: 1
▁weaned: 1
▁naso: 1
▁handicap: 1
ducible: 1
eosinophilic: 1
▁dystroph: 1
006: 1
terici: 1
approximate: 1
bowel: 1
documented: 1
limited: 1
olecular: 1
ssociated: 1
trophy: 1
▁ultra: 1
▁weigh: 1
istribution: 1
▁glycogen: 1
hormon: 1
cephalic: 1
▁Eosinophil: 1
carnitine: 1
immunocompromise: 1
▁Carotid: 1
▁Epidemiologic: 1
▁Glasgow: 1
▁Growth: 1
▁Identification: 1
▁Pressure: 1
▁Registry: 1
▁adventitia: 1
▁antiviral: 1
▁desaturation: 1
▁earliest: 1
▁immunoassay: 1
▁myelography: 1
▁pathologist: 1
▁refractoriness: 1
▁reproducible: 1
▁rubber: 1
▁sequestration: 1
▁yeast: 1
▁prolactin: 1
▁ulnar: 1
▁width: 1
ANLL: 1
lithium: 1
▁preferable: 1
▁rodent: 1
hyperinsulinemia: 1
▁colostomy: 1
▁stapl: 1
▁Histopathologic: 1
▁(73%): 1
▁(63%): 1
▁groin: 1
▁lectin: 1
▁equina: 1
/100,000: 1
▁Sept: 1
▁Bacteri: 1
▁Imag: 1
smokers: 1
lumbar: 1
SHR: 1
▁regulate: 1
ipped: 1
expanding: 1
▁Trauma: 1
▁epitheli: 1
uppression: 1
▁psychologic: 1
▁attenuate: 1
▁mitochondria: 1
microbial: 1
APACHE: 1
▁aberrant: 1
▁chromogranin: 1
▁cosmetic: 1
▁deleterious: 1
▁integration: 1
▁mediastinum: 1
▁milliliter: 1
▁paraplegic: 1
▁peroxidation: 1
▁themselves: 1
▁upstream: 1
▁vancomycin: 1
▁Alcohol: 1
▁Roux: 1
▁adenoid: 1
▁subdural: 1
▁Finding: 1
▁sterile: 1
▁Fallot: 1
▁inhalation: 1
metaboliz: 1
▁assumed: 1
▁devised: 1
▁(51%): 1
▁(44%): 1
▁worsened: 1
▁opposite: 1
▁Retin: 1
▁multicentr: 1
▁bacill: 1
▁mitot: 1
glycoside: 1
transurethral: 1
traosseous: 1
vitamin: 1
regional: 1
▁facilitat: 1
osseous: 1
▁myofibr: 1
▁substantia: 1
absorpti: 1
hyperventilation: 1
▁Experience: 1
▁Graft: 1
▁Pseudom: 1
▁Simultaneous: 1
▁Unfortunately: 1
▁amenorrhea: 1
▁bronchus: 1
▁cerulein: 1
▁demyelinating: 1
▁deprivation: 1
▁dermis: 1
▁epidemiology: 1
▁episodic: 1
▁extravasation: 1
▁genotype: 1
▁hypotheses: 1
▁incontinent: 1
▁latencies: 1
▁ligand: 1
▁megakaryocyt: 1
▁metastasiz: 1
▁procedural: 1
▁restraint: 1
▁splenomegaly: 1
▁symmetric: 1
▁syncyti: 1
▁tertiary: 1
▁thalamus: 1
▁vaccination: 1
▁Influence: 1
▁Approximate: 1
▁bronchoscopy: 1
▁lacuna: 1
▁WEB: 1
▁arousal: 1
▁outlined: 1
▁neurinoma: 1
▁varies: 1
▁upright: 1
▁slice: 1
▁why: 1
GVHD: 1
▁choline: 1
▁lengthening: 1
▁nucleol: 1
▁foramen: 1
▁astrocytomas: 1
LVEF: 1
▁tubule: 1
▁granulocytic: 1
▁labell: 1
SCLC: 1
▁alert: 1
allelic: 1
HBe: 1
aggregat: 1
rush: 1
panic: 1
injured: 1
nodal: 1
severe: 1
count: 1
establishment: 1
▁trachea: 1
▁(10(-: 1
ecovery: 1
▁granulosa: 1
aldehyde: 1
microcirculation: 1
▁Kawasaki: 1
▁adipos: 1
▁coagulopathy: 1
▁deficiencies: 1
▁disabilities: 1
▁endometriosis: 1
▁infiltrating: 1
▁integral: 1
▁kindred: 1
▁myasthenic: 1
▁orientation: 1
▁orthopedic: 1
▁rotavirus: 1
▁satisfaction: 1
▁somewhat: 1
▁trimester: 1
▁vinblastine: 1
▁withdrawn: 1
dnexal: 1
parkinsonism: 1
tentorial: 1
▁equipment: 1
▁calculi: 1
▁turnover: 1
▁immunostaining: 1
MuLV: 1
▁(83%): 1
▁cysteine: 1
▁serous: 1
▁(77%): 1
▁postural: 1
glycerol: 1
▁kcal: 1
Fisher: 1
sacral: 1
emesis: 1
balanced: 1
haracterization: 1
▁0.008: 1
lope: 1
▁subtracti: 1
▁urologic: 1
infarct: 1
cirrhotic: 1
temporal: 1
carotid: 1
glycoprotein: 1
icidal: 1
nterior: 1
roentgenographic: 1
myelodysplas: 1
hypertensive: 1
miodarone: 1
reserved: 1
▁Tempor: 1
▁lovastatin: 1
arthrosis: 1
oduodenectomy: 1
▁February: 1
▁Mechanism: 1
▁abundant: 1
▁ammonia: 1
▁antifungal: 1
▁antioxidant: 1
▁conjunctiv: 1
▁decarboxylase: 1
▁dopaminergic: 1
▁empyema: 1
▁etiologies: 1
▁extensor: 1
▁fundoplication: 1
▁indwelling: 1
▁ondansetron: 1
▁oximetry: 1
▁pharynx: 1
▁prostatitis: 1
▁saturated: 1
▁tenderness: 1
▁villous: 1
▁spleno: 1
▁(81%): 1
▁(92%): 1
▁hCG: 1
▁tracing: 1
▁(53%): 1
▁(46%): 1
ontrary: 1
avicular: 1
▁inherent: 1
▁formalin: 1
▁rice: 1
▁Mild: 1
▁Myel: 1
▁thio: 1
▁Beta: 1
Brit: 1
flammatory: 1
membran: 1
IGF: 1
exercise: 1
analysis: 1
▁multisystem: 1
genital: 1
denosine: 1
ggressive: 1
sphincteroplasty: 1
degrad: 1
Arg: 1
elvic: 1
lived: 1
chemistry: 1
ytogenetic: 1
ympathetic: 1
▁hyster: 1
biofeedback: 1
chlorothiazide: 1
enhancing: 1
neurotransmitter: 1
opportunistic: 1
▁Breast: 1
▁Campylobacter: 1
▁Consequently: 1
▁Restenosis: 1
▁Schwann: 1
▁Ultrasound: 1
▁argyrophil: 1
▁baroreflex: 1
▁bromocriptine: 1
▁centimeters: 1
▁convulsions: 1
▁dehydration: 1
▁detrimental: 1
▁distortion: 1
▁elsewhere: 1
▁extrinsic: 1
▁fluctuations: 1
▁hemorrhoid: 1
▁hypothalamus: 1
▁paternal: 1
▁pemphigus: 1
▁plasminogen: 1
▁pyelonephritis: 1
▁remarkable: 1
▁reproductive: 1
▁sotalol: 1
▁subendocardial: 1
▁thiazide: 1
▁calculation: 1
▁cream: 1
▁preexcitation: 1
▁readmission: 1
▁excitability: 1
▁Impair: 1
▁mEq: 1
▁intron: 1
▁SIDS: 1
▁plateau: 1
▁(74%): 1
clonic: 1
▁anoxia: 1
▁chimeri: 1
▁(34%): 1
▁dropped: 1
▁cGy: 1
▁Paget: 1
▁(100%): 1
▁flush: 1
▁activator: 1
▁SPF: 1
▁ilio: 1
local: 1
Index: 1
affinity: 1
feeding: 1
potent: 1
▁vasodilat: 1
pigmented: 1
▁ioniz: 1
▁cardiomyopath: 1
schemic: 1
rophylaxis: 1
▁excret: 1
habit: 1
iltiazem: 1
ietary: 1
▁0.0001: 1
glycemic: 1
▁ampulla: 1
▁cytoreducti: 1
Canadian: 1
counterpulsation: 1
▁.005): 1
▁Carcinoma: 1
▁Dahl: 1
▁Morphologic: 1
▁controversy: 1
▁cryptococc: 1
▁demonstrable: 1
▁dermatitis: 1
▁elbow: 1
▁glove: 1
▁lymphadenopathy: 1
▁malnutrition: 1
▁matching: 1
▁mobilization: 1
▁multifactorial: 1
▁phorbol: 1
▁rhabdomyolysis: 1
▁stenosed: 1
▁synthetase: 1
▁tactile: 1
▁transection: 1
▁unequivocal: 1
▁Ultrasonograph: 1
▁laminectomy: 1
▁megakaryoblast: 1
▁paresis: 1
▁temporo: 1
▁mtDNA: 1
▁hemostatic: 1
▁Stress: 1
▁laryngo: 1
▁salicylate: 1
▁curable: 1
▁esophagogastr: 1
arteriti: 1
▁Vag: 1
▁litho: 1
▁atheromato: 1
ectin: 1
▁0.009: 1
condition: 1
valvular: 1
heart: 1
interferon: 1
birth: 1
surface: 1
mitral: 1
angle: 1
▁adolescent: 1
ultidisciplinary: 1
iploi: 1
CoA: 1
ophilu: 1
rogressive: 1
opolysaccharide: 1
▁femoro: 1
Dawley: 1
amphetamine: 1
ceftriaxone: 1
cyclovir: 1
fluorescent: 1
thylprednisolone: 1
▁Chromosom: 1
▁Doxazosin: 1
▁aminophylline: 1
▁anorexia: 1
▁cathepsin: 1
▁delapril: 1
▁disadvantage: 1
▁dyskinesia: 1
▁erythromycin: 1
▁mesenchymal: 1
▁metoclopramide: 1
▁normothermic: 1
▁phosphocreatine: 1
▁potency: 1
▁purpura: 1
▁scoliosis: 1
▁seronegative: 1
▁stopping: 1
▁stridor: 1
▁sweat: 1
▁transaminase: 1
▁vigorous: 1
▁0.0000: 1
▁Toxicity: 1
▁appreciat: 1
▁oscillat: 1
▁reabsorption: 1
▁spots: 1
72.3: 1
▁nadir: 1
▁rearranged: 1
▁thrombosed: 1
▁penile: 1
▁tumorigenesis: 1
▁disabled: 1
waiting: 1
▁(89%): 1
helix: 1
▁(69%): 1
▁oncology: 1
▁heterotopi: 1
▁(39%): 1
precordi: 1
orthostatic: 1
▁dyspep: 1
otropin: 1
▁necro: 1
gulated: 1
chemotherapy: 1
utaneous: 1
fibro: 1
▁mesotheli: 1
▁sarco: 1
diopathic: 1
endarterectomies: 1
neglect: 1
tellectual: 1
▁10(9)/: 1
▁Advance: 1
▁Elderly: 1
▁Etoposide: 1
▁Greenfield: 1
▁Marfan: 1
▁Sprague: 1
▁Systolic: 1
▁allergy: 1
▁arachnoid: 1
▁azathioprine: 1
▁densities: 1
▁dobutamine: 1
▁emergent: 1
▁epidermis: 1
▁evacuation: 1
▁exudate: 1
▁fasciitis: 1
▁glutathione: 1
▁histiocytosis: 1
▁hypersecretion: 1
▁integrin: 1
▁ketoconazole: 1
▁measles: 1
▁mucositis: 1
▁offspring: 1
▁oxidation: 1
▁predominate: 1
▁reproducibility: 1
▁reticulum: 1
▁reversibility: 1
▁unfavorabl: 1
▁urotheli: 1
▁Infants: 1
▁Recombina: 1
▁antisense: 1
▁cecum: 1
peristaltic: 1
▁amyotroph: 1
osmotic: 1
▁Baseline: 1
▁UVB: 1
roviral: 1
▁cervico: 1
▁plantar: 1
▁clue: 1
▁deleted: 1
▁polarity: 1
▁(62%): 1
▁hyalin: 1
lingual: 1
▁.04: 1
cytosine: 1
guani: 1
timulation: 1
susceptible: 1
secretory: 1
sudden: 1
neuronal: 1
restricted: 1
hyper: 1
obstruction: 1
MEN: 1
▁tracheo: 1
cachectin: 1
▁diminish: 1
▁electromyograph: 1
holecystectomy: 1
plethysmography: 1
wheezing: 1
▁Benign: 1
▁Gallbladder: 1
▁HBcAg: 1
▁Interleukin: 1
▁Knowledge: 1
▁Nucle: 1
▁Papanicolaou: 1
▁Reoperation: 1
▁Ultrastructural: 1
▁Willebrand: 1
▁apparatus: 1
▁appendage: 1
▁deserve: 1
▁diffusion: 1
▁encouraging: 1
▁instillation: 1
▁irrigation: 1
▁isotonic: 1
▁leukopenia: 1
▁methacholine: 1
▁millimeter: 1
▁neuroectoderm: 1
▁ovaries: 1
▁paramedic: 1
▁rectosigmoid: 1
▁registry: 1
▁schizophrenic: 1
▁silicone: 1
▁tetracycline: 1
▁unsatisfactory: 1
▁vagus: 1
henodeoxychol: 1
▁Animals: 1
▁DOCA: 1
▁Portal: 1
▁arthroscop: 1
▁consumed: 1
▁retroviral: 1
▁NMDA: 1
▁additive: 1
▁cochlea: 1
▁transduction: 1
▁thickened: 1
▁Relative: 1
▁(94%): 1
▁tonsill: 1
▁microscope: 1
▁Photo: 1
▁(52%): 1
▁chiasm: 1
▁(85%): 1
▁(65%): 1
▁(45%): 1
▁chylo: 1
▁(59%): 1
▁DATA: 1
karyot: 1
spleni: 1
cytochemistry: 1
eutz: 1
myxoma: 1
parasitic: 1
cerebral: 1
nucleotide: 1
melanoma: 1
plasma: 1
HBV: 1
IgG: 1
▁doubl: 1
erioperative: 1
erformance: 1
plasia: 1
▁Obstructi: 1
▁chicken: 1
▁lignocaine: 1
Chiari: 1
encephalogram: 1
lipoxygenase: 1
osmolality: 1
prolactinemia: 1
thrombocytopenic: 1
▁Characteristic: 1
▁Cumulative: 1
▁Seizure: 1
▁Therapeutic: 1
▁abdominis: 1
▁aldolase: 1
▁apolipoprotein: 1
▁asphyxia: 1
▁atelectasis: 1
▁bradykinin: 1
▁cardioverter: 1
▁convenient: 1
▁cystadenoma: 1
▁discriminant: 1
▁emergencies: 1
▁expenditure: 1
▁lumbosacral: 1
▁paradigm: 1
▁quadriceps: 1
▁resorption: 1
▁sagittal: 1
▁staphylococc: 1
▁subdivide: 1
▁quantity: 1
▁Consider: 1
▁gliosis: 1
▁mandatory: 1
▁verruc: 1
hydroxylase: 1
▁OKT: 1
▁argon: 1
glycine: 1
▁contour: 1
▁snare: 1
▁neuropathies: 1
▁Estimat: 1
▁mutated: 1
▁Induction: 1
▁Oddi: 1
▁(93%): 1
▁revised: 1
▁(90%): 1
oriented: 1
▁Gram: 1
caloric: 1
TBI: 1
Chest: 1
pyramidal: 1
chelat: 1
esophagectomy: 1
▁reconstructi: 1
mbolization: 1
maximal: 1
▁occlud: 1
▁tibia: 1
erebellar: 1
araiosis: 1
endorphin: 1
hlamydia: 1
osocomial: 1
peptidase: 1
synchrony: 1
unsaturated: 1
▁Diffuse: 1
▁Duchenne: 1
▁Intervention: 1
▁Langerhans: 1
▁advancing: 1
▁arabinoside: 1
▁cisapride: 1
▁deafness: 1
▁degranulation: 1
▁digestion: 1
▁displaced: 1
▁easier: 1
▁falciparum: 1
▁guiding: 1
▁hemodilution: 1
▁hemoptysis: 1
▁inconclusive: 1
▁infertility: 1
▁jerk: 1
▁myeloperoxidase: 1
▁oesophagus: 1
▁piroxicam: 1
▁psoriasis: 1
▁recruitment: 1
▁sacrificed: 1
▁tourniquet: 1
▁vegetable: 1
▁Careful: 1
▁breakdown: 1
▁cloning: 1
▁Enhanc: 1
▁Neonat: 1
▁maxillary: 1
▁acinar: 1
▁gastrostomy: 1
▁ingested: 1
▁venography: 1
▁dyne: 1
▁flare: 1
attery: 1
transmembrane: 1
olithiasis: 1
EMA: 1
radiographically: 1
raumatic: 1
▁Echocardiograph: 1
expandable: 1
▁endomyocardi: 1
terstitial: 1
spectrum: 1
EEG: 1
imaging: 1
through: 1
▁Rect: 1
hibition: 1
menopausal: 1
▁pepsin: 1
Minnesota: 1
dysautonomi: 1
obarbital: 1
trapericardial: 1
▁Contrast: 1
▁Glucose: 1
▁ameloblastoma: 1
▁atropine: 1
▁chordoma: 1
▁contemporary: 1
▁cramp: 1
▁dilemma: 1
▁ectasia: 1
▁jejunum: 1
▁obviate: 1
▁periphery: 1
▁radiologist: 1
▁stratification: 1
▁torticollis: 1
▁warning: 1
▁trivial: 1
▁coronal: 1
▁palpation: 1
▁sputum: 1
fruit: 1
▁EMLA: 1
methoxy: 1
▁asbestos: 1
▁resectability: 1
▁(58%): 1
▁tetraploid: 1
MHz: 1
keratosis: 1
scheduled: 1
continuation: 1
fiber: 1
nodular: 1
monitor: 1
morphine: 1
▁esophag: 1
▁Except: 1
▁vasomot: 1
▁vagina: 1
▁degenerat: 1
igraine: 1
ognitive: 1
keletal: 1
ladder: 1
▁appendic: 1
▁contigu: 1
chymotrypsin: 1
countertransport: 1
pneumococcal: 1
rgonovine: 1
▁Balloon: 1
▁Dacron: 1
▁Measur: 1
▁Potential: 1
▁alopecia: 1
▁baroreceptor: 1
▁biosynthesis: 1
▁bretylium: 1
▁certificate: 1
▁concordant: 1
▁cystgastrostomy: 1
▁denervation: 1
▁duodenitis: 1
▁embolus: 1
▁figures: 1
▁ganciclovir: 1
▁gunshot: 1
▁heartburn: 1
▁histiocytoma: 1
▁hyperamylasemia: 1
▁kilogram: 1
▁laryngectomy: 1
▁mucocele: 1
▁ophthalmoplegia: 1
▁osteoarthritis: 1
▁peculiar: 1
▁pertussis: 1
▁postinfarction: 1
▁propensity: 1
▁quadriplegia: 1
▁remodeling: 1
▁sequencing: 1
▁shrink: 1
▁suramin: 1
▁thiopental: 1
▁trabecula: 1
▁vitrectomy: 1
▁Catheter: 1
▁Mycobacteri: 1
▁generator: 1
▁habitual: 1
▁hydatid: 1
▁undetected: 1
▁Famili: 1
▁Interferon: 1
▁aerosol: 1
▁odontogen: 1
▁potentiated: 1
▁Technic: 1
▁stature: 1
▁potentiation: 1
haemodynamic: 1
▁(64%): 1
▁Epiderm: 1
monocytic: 1
▁corpectom: 1
▁monozygo: 1
epithelioma: 1
▁Extracorpor: 1
discharge: 1
bilirubin: 1
reflux: 1
estrogen: 1
▁isovolum: 1
osclerosis: 1
▁secrete: 1
▁thromboembol: 1
▁snore: 1
▁immuniz: 1
cipient: 1
esidual: 1
caffein: 1
HMPAO: 1
melatonin: 1
mercaptopurine: 1
ocyanine: 1
thalassemia: 1
▁Concomitant: 1
▁Metaboli: 1
▁Positive: 1
▁Salmonella: 1
▁Unusual: 1
▁alfentanil: 1
▁antecedent: 1
▁antidepressant: 1
▁bFGF: 1
▁cilazapril: 1
▁circumference: 1
▁clonogenic: 1
▁conclusive: 1
▁dimeglumine: 1
▁dissemination: 1
▁dizziness: 1
▁dyslipidemi: 1
▁dysmotility: 1
▁efferent: 1
▁enflurane: 1
▁entrapment: 1
▁gastrocnemius: 1
▁immobiliz: 1
▁invariably: 1
▁judgment: 1
▁leukoplakia: 1
▁lysosom: 1
▁overdistraction: 1
▁paralyzed: 1
▁paraparesis: 1
▁procainamide: 1
▁territories: 1
▁twitch: 1
▁vasculopathy: 1
▁vulgaris: 1
immortaliz: 1
▁Aspirin: 1
▁Daily: 1
▁dependency: 1
▁glue: 1
▁reinfarction: 1
ALRI: 1
NMEPs: 1
▁Detail: 1
▁consistency: 1
▁deformation: 1
▁Candida: 1
PNET: 1
caudal: 1
ostmortem: 1
disciplinary: 1
pregnant: 1
creatinine: 1
administered: 1
vulnerable: 1
1.73: 1
▁neutropeni: 1
▁bloc: 1
picardial: 1
empty: 1
commissur: 1
antiprotease: 1
contaminated: 1
obstructing: 1
▁Adriamycin: 1
▁Maternal: 1
▁Morbidity: 1
▁Obesity: 1
▁Pregnancy: 1
▁appendix: 1
▁botulinum: 1
▁cholecystostomy: 1
▁chordae: 1
▁deceleration: 1
▁downstream: 1
▁encephalitis: 1
▁expensive: 1
▁facilities: 1
▁fungoides: 1
▁furosemide: 1
▁heterozygosity: 1
▁impression: 1
▁luteal: 1
▁mullerian: 1
▁multimodal: 1
▁nutrient: 1
▁plasmid: 1
▁prescription: 1
▁quantities: 1
▁refinement: 1
▁sensitivities: 1
▁supernatant: 1
▁transfused: 1
immunohistologic: 1
▁Gorlin: 1
▁maximize: 1
▁Alteration: 1
▁Proxim: 1
▁catalase: 1
▁codeine: 1
▁gyrus: 1
▁Value: 1
difference: 1
ordinate: 1
quarter: 1
▁serosa: 1
onetheless: 1
ursodeoxycholate: 1
▁neurobehavior: 1
▁epilepti: 1
rognosis: 1
▁applica: 1
ynchronous: 1
-68,798: 1
HELLP: 1
ropafenone: 1
witnessed: 1
yringomyelia: 1
▁Accurate: 1
▁Adenocarcinoma: 1
▁Adjuvant: 1
▁Certain: 1
▁Cervical: 1
▁Cholangio: 1
▁Cryptosporidium: 1
▁GPIIb: 1
▁Hemorrhag: 1
▁Pharmacologic: 1
▁ambulation: 1
▁antagonism: 1
▁arthralgia: 1
▁brachytherapy: 1
▁bridging: 1
▁candidiasis: 1
▁cholelithiasis: 1
▁chondrosarcoma: 1
▁corroborate: 1
▁deferoxamine: 1
▁dehiscence: 1
▁eicosanoid: 1
▁endotoxemia: 1
▁gadopentetate: 1
▁genitourinary: 1
▁hydrocortisone: 1
▁intelligence: 1
▁mechanics: 1
▁metachronous: 1
▁misdiagnosis: 1
▁naproxen: 1
▁necessity: 1
▁paraganglioma: 1
▁pleuritis: 1
▁postinjury: 1
▁seroconversion: 1
▁spondylo: 1
▁sufentanil: 1
▁surfactant: 1
▁titanium: 1
▁turbulen: 1
▁unacceptabl: 1
centromere: 1
▁Cytologic: 1
▁Dipyridamole: 1
▁luteiniz: 1
▁purging: 1
▁subluxat: 1
Technetium: 1
spasmodic: 1
▁PCWP: 1
▁eruption: 1
▁sonographic: 1
▁pleuro: 1
Linda: 1
MIBG: 1
germinoma: 1
▁allergen: 1
▁bullo: 1
traperitoneally: 1
transcriptional: 1
study: 1
dequate: 1
cquired: 1
▁cyclosporin: 1
cartilag: 1
▁papilla: 1
floxacin: 1
lipoproteinemia: 1
pleomorphic: 1
▁Epidur: 1
▁Invasive: 1
▁Ischemia: 1
▁Pattern: 1
▁Regression: 1
▁Sustained: 1
▁Trolox: 1
▁aeruginosa: 1
▁alternans: 1
▁basophilic: 1
▁bronchiolitis: 1
▁charcoal: 1
▁concordance: 1
▁desflurane: 1
▁dinitrate: 1
▁eccrine: 1
▁elastase: 1
▁ethmoid: 1
▁expectancy: 1
▁fructose: 1
▁hyperlipidemia: 1
▁hypoglycaemi: 1
▁jaw: 1
▁ketamine: 1
▁musculoskeletal: 1
▁negligible: 1
▁nonalcoholic: 1
▁parkinsonian: 1
▁pertinent: 1
▁polycythemia: 1
▁postprandial: 1
▁proliferate: 1
▁quadriplegic: 1
▁replicate: 1
▁rewarming: 1
▁squeeze: 1
▁stockings: 1
▁suturing: 1
▁zidovudine: 1
▁Headache: 1
▁deformities: 1
▁harbor: 1
▁pneumonitis: 1
▁waking: 1
▁Circulat: 1
▁teenage: 1
▁mobile: 1
inspired: 1
synthase: 1
trapartum: 1
reflexia: 1
▁Fibro: 1
10(-3): 1
▁transrect: 1
carbonate: 1
pigmentation: 1
leukemia: 1
microvasculature: 1
driven: 1
fibrinogen: 1
mixed: 1
channel: 1
balloon: 1
detect: 1
ploidy: 1
▁cholecystectom: 1
ubclavian: 1
usceptibility: 1
uberculosis: 1
ysphagia: 1
Caucasian: 1
convulsive: 1
occupie: 1
palmitate: 1
pneumoperitoneum: 1
romodeoxyuridine: 1
sanguin: 1
terrelationship: 1
▁Angiography: 1
▁Angiotensin: 1
▁Appropriate: 1
▁Duodenal: 1
▁Epidemiology: 1
▁Inventory: 1
▁Investigation: 1
▁Investigators: 1
▁Reconstructi: 1
▁Technique: 1
▁Valsalva: 1
▁accentuate: 1
▁annulus: 1
▁backscatter: 1
▁biopsied: 1
▁burgdorferi: 1
▁bystander: 1
▁ciprofloxacin: 1
▁devastating: 1
▁diversity: 1
▁eczema: 1
▁fluconazole: 1
▁galanin: 1
▁hemostasis: 1
▁homeostasis: 1
▁ibuprofen: 1
▁inspection: 1
▁participating: 1
▁pedigree: 1
▁possibilities: 1
▁preponderance: 1
▁radiculopathy: 1
▁repetition: 1
▁rhinitis: 1
▁seropositivity: 1
▁taurocholate: 1
▁trachomatis: 1
▁turboFLASH: 1
▁ultraviolet: 1
▁unaltered: 1
▁vertebrobasilar: 1
▁condyle: 1
▁segregat: 1
▁Gaucher: 1
▁Psychologic: 1
▁Femor: 1
hagas: 1
asovagal: 1
▁purulen: 1
consuming: 1
mbilical: 1
10(8): 1
▁escalat: 1
▁neointima: 1
leukemic: 1
▁duodeno: 1
neutrophil: 1
agonist: 1
prostaglandin: 1
infusion: 1
